{
  "version": "1.0",
  "truncation": {
    "direction": "Right",
    "max_length": 512,
    "strategy": "LongestFirst",
    "stride": 0
  },
  "padding": null,
  "added_tokens": [
    {
      "id": 0,
      "content": "[PAD]",
      "single_word": false,
      "lstrip": false,
      "rstrip": false,
      "normalized": false,
      "special": true
    },
    {
      "id": 100,
      "content": "[UNK]",
      "single_word": false,
      "lstrip": false,
      "rstrip": false,
      "normalized": false,
      "special": true
    },
    {
      "id": 101,
      "content": "[CLS]",
      "single_word": false,
      "lstrip": false,
      "rstrip": false,
      "normalized": false,
      "special": true
    },
    {
      "id": 102,
      "content": "[SEP]",
      "single_word": false,
      "lstrip": false,
      "rstrip": false,
      "normalized": false,
      "special": true
    },
    {
      "id": 103,
      "content": "[MASK]",
      "single_word": false,
      "lstrip": false,
      "rstrip": false,
      "normalized": false,
      "special": true
    }
  ],
  "normalizer": {
    "type": "BertNormalizer",
    "clean_text": true,
    "handle_chinese_chars": true,
    "strip_accents": null,
    "lowercase": true
  },
  "pre_tokenizer": {
    "type": "BertPreTokenizer"
  },
  "post_processor": {
    "type": "TemplateProcessing",
    "single": [
      {
        "SpecialToken": {
          "id": "[CLS]",
          "type_id": 0
        }
      },
      {
        "Sequence": {
          "id": "A",
          "type_id": 0
        }
      },
      {
        "SpecialToken": {
          "id": "[SEP]",
          "type_id": 0
        }
      }
    ],
    "pair": [
      {
        "SpecialToken": {
          "id": "[CLS]",
          "type_id": 0
        }
      },
      {
        "Sequence": {
          "id": "A",
          "type_id": 0
        }
      },
      {
        "SpecialToken": {
          "id": "[SEP]",
          "type_id": 0
        }
      },
      {
        "Sequence": {
          "id": "B",
          "type_id": 1
        }
      },
      {
        "SpecialToken": {
          "id": "[SEP]",
          "type_id": 1
        }
      }
    ],
    "special_tokens": {
      "[CLS]": {
        "id": "[CLS]",
        "ids": [
          101
        ],
        "tokens": [
          "[CLS]"
        ]
      },
      "[SEP]": {
        "id": "[SEP]",
        "ids": [
          102
        ],
        "tokens": [
          "[SEP]"
        ]
      }
    }
  },
  "decoder": {
    "type": "WordPiece",
    "prefix": "##",
    "cleanup": true
  },
  "model": {
    "type": "WordPiece",
    "unk_token": "[UNK]",
    "continuing_subword_prefix": "##",
    "max_input_chars_per_word": 100,
    "vocab": {
      "[PAD]": 0,
      "[unused0]": 1,
      "[unused1]": 2,
      "[unused2]": 3,
      "[unused3]": 4,
      "[unused4]": 5,
      "[unused5]": 6,
      "[unused6]": 7,
      "[unused7]": 8,
      "[unused8]": 9,
      "[unused9]": 10,
      "[unused10]": 11,
      "[unused11]": 12,
      "[unused12]": 13,
      "[unused13]": 14,
      "[unused14]": 15,
      "[unused15]": 16,
      "[unused16]": 17,
      "[unused17]": 18,
      "[unused18]": 19,
      "[unused19]": 20,
      "[unused20]": 21,
      "[unused21]": 22,
      "[unused22]": 23,
      "[unused23]": 24,
      "[unused24]": 25,
      "[unused25]": 26,
      "[unused26]": 27,
      "[unused27]": 28,
      "[unused28]": 29,
      "[unused29]": 30,
      "[unused30]": 31,
      "[unused31]": 32,
      "[unused32]": 33,
      "[unused33]": 34,
      "[unused34]": 35,
      "[unused35]": 36,
      "[unused36]": 37,
      "[unused37]": 38,
      "[unused38]": 39,
      "[unused39]": 40,
      "[unused40]": 41,
      "[unused41]": 42,
      "[unused42]": 43,
      "[unused43]": 44,
      "[unused44]": 45,
      "[unused45]": 46,
      "[unused46]": 47,
      "[unused47]": 48,
      "[unused48]": 49,
      "[unused49]": 50,
      "[unused50]": 51,
      "[unused51]": 52,
      "[unused52]": 53,
      "[unused53]": 54,
      "[unused54]": 55,
      "[unused55]": 56,
      "[unused56]": 57,
      "[unused57]": 58,
      "[unused58]": 59,
      "[unused59]": 60,
      "[unused60]": 61,
      "[unused61]": 62,
      "[unused62]": 63,
      "[unused63]": 64,
      "[unused64]": 65,
      "[unused65]": 66,
      "[unused66]": 67,
      "[unused67]": 68,
      "[unused68]": 69,
      "[unused69]": 70,
      "[unused70]": 71,
      "[unused71]": 72,
      "[unused72]": 73,
      "[unused73]": 74,
      "[unused74]": 75,
      "[unused75]": 76,
      "[unused76]": 77,
      "[unused77]": 78,
      "[unused78]": 79,
      "[unused79]": 80,
      "[unused80]": 81,
      "[unused81]": 82,
      "[unused82]": 83,
      "[unused83]": 84,
      "[unused84]": 85,
      "[unused85]": 86,
      "[unused86]": 87,
      "[unused87]": 88,
      "[unused88]": 89,
      "[unused89]": 90,
      "[unused90]": 91,
      "[unused91]": 92,
      "[unused92]": 93,
      "[unused93]": 94,
      "[unused94]": 95,
      "[unused95]": 96,
      "[unused96]": 97,
      "[unused97]": 98,
      "[unused98]": 99,
      "[UNK]": 100,
      "[CLS]": 101,
      "[SEP]": 102,
      "[MASK]": 103,
      "[unused99]": 104,
      "[unused100]": 105,
      "΄": 106,
      "˙": 107,
      "!": 108,
      "\"": 109,
      "#": 110,
      "$": 111,
      "%": 112,
      "&": 113,
      "'": 114,
      "(": 115,
      ")": 116,
      "*": 117,
      "+": 118,
      ",": 119,
      "-": 120,
      ".": 121,
      "/": 122,
      "0": 123,
      "1": 124,
      "2": 125,
      "3": 126,
      "4": 127,
      "5": 128,
      "6": 129,
      "7": 130,
      "8": 131,
      "9": 132,
      "##0": 133,
      "##1": 134,
      "##2": 135,
      "##3": 136,
      "##4": 137,
      "##5": 138,
      "##6": 139,
      "##7": 140,
      "##8": 141,
      "##9": 142,
      ":": 143,
      ";": 144,
      "<": 145,
      "=": 146,
      ">": 147,
      "?": 148,
      "@": 149,
      "[": 150,
      "\\": 151,
      "]": 152,
      "^": 153,
      "_": 154,
      "`": 155,
      "a": 156,
      "b": 157,
      "c": 158,
      "d": 159,
      "e": 160,
      "f": 161,
      "g": 162,
      "h": 163,
      "i": 164,
      "j": 165,
      "k": 166,
      "l": 167,
      "m": 168,
      "n": 169,
      "o": 170,
      "p": 171,
      "q": 172,
      "r": 173,
      "s": 174,
      "t": 175,
      "u": 176,
      "v": 177,
      "w": 178,
      "x": 179,
      "y": 180,
      "z": 181,
      "##a": 182,
      "##b": 183,
      "##c": 184,
      "##d": 185,
      "##e": 186,
      "##f": 187,
      "##g": 188,
      "##h": 189,
      "##i": 190,
      "##j": 191,
      "##k": 192,
      "##l": 193,
      "##m": 194,
      "##n": 195,
      "##o": 196,
      "##p": 197,
      "##q": 198,
      "##r": 199,
      "##s": 200,
      "##t": 201,
      "##u": 202,
      "##v": 203,
      "##w": 204,
      "##x": 205,
      "##y": 206,
      "##z": 207,
      "{": 208,
      "|": 209,
      "}": 210,
      "~": 211,
      "¡": 212,
      "¢": 213,
      "£": 214,
      "¤": 215,
      "¥": 216,
      "¦": 217,
      "§": 218,
      "¨": 219,
      "©": 220,
      "ª": 221,
      "«": 222,
      "»": 223,
      "¬": 224,
      "®": 225,
      "°": 226,
      "´": 227,
      "·": 228,
      "0000": 229,
      "×": 230,
      "÷": 231,
      "ʔ": 232,
      "α": 233,
      "β": 234,
      "γ": 235,
      "δ": 236,
      "ε": 237,
      "ζ": 238,
      "η": 239,
      "θ": 240,
      "ι": 241,
      "κ": 242,
      "λ": 243,
      "μ": 244,
      "ν": 245,
      "ξ": 246,
      "ο": 247,
      "π": 248,
      "ρ": 249,
      "ς": 250,
      "σ": 251,
      "τ": 252,
      "υ": 253,
      "φ": 254,
      "χ": 255,
      "ψ": 256,
      "ω": 257,
      "##´": 258,
      "##΄": 259,
      "##°": 260,
      "##α": 261,
      "##β": 262,
      "##γ": 263,
      "##δ": 264,
      "##ε": 265,
      "##ζ": 266,
      "##η": 267,
      "##θ": 268,
      "##ι": 269,
      "##κ": 270,
      "##λ": 271,
      "##μ": 272,
      "##ν": 273,
      "##ξ": 274,
      "##ο": 275,
      "##π": 276,
      "##ρ": 277,
      "##ς": 278,
      "##σ": 279,
      "##τ": 280,
      "##υ": 281,
      "##φ": 282,
      "##χ": 283,
      "##ψ": 284,
      "##ω": 285,
      "а": 286,
      "‐": 287,
      "‑": 288,
      "‒": 289,
      "–": 290,
      "—": 291,
      "―": 292,
      "‖": 293,
      "‘": 294,
      "’": 295,
      "‚": 296,
      "“": 297,
      "”": 298,
      "„": 299,
      "•": 300,
      "…": 301,
      "‰": 302,
      "′": 303,
      "″": 304,
      "›": 305,
      "⁄": 306,
      "₤": 307,
      "₩": 308,
      "€": 309,
      "₱": 310,
      "™": 311,
      "−": 312,
      "∗": 313,
      "∘": 314,
      "∧": 315,
      "∨": 316,
      "∩": 317,
      "∪": 318,
      "≈": 319,
      "≤": 320,
      "≥": 321,
      "⋅": 322,
      "─": 323,
      "│": 324,
      "⟨": 325,
      "⟩": 326,
      "、": 327,
      "。": 328,
      "〈": 329,
      "〉": 330,
      "《": 331,
      "》": 332,
      "〜": 333,
      "！": 334,
      "（": 335,
      "）": 336,
      "，": 337,
      "－": 338,
      "．": 339,
      "／": 340,
      "：": 341,
      "？": 342,
      "～": 343,
      "και": 344,
      "το": 345,
      "του": 346,
      "newline": 347,
      "να": 348,
      "της": 349,
      "την": 350,
      "με": 351,
      "απο": 352,
      "για": 353,
      "που": 354,
      "τα": 355,
      "σε": 356,
      "ειναι": 357,
      "των": 358,
      "στο": 359,
      "στην": 360,
      "θα": 361,
      "τον": 362,
      "οι": 363,
      "τους": 364,
      "τη": 365,
      "δεν": 366,
      "τις": 367,
      "οτι": 368,
      "μια": 369,
      "ενα": 370,
      "μας": 371,
      "στη": 372,
      "##ων": 373,
      "αλλα": 374,
      "στα": 375,
      "αυτο": 376,
      "εχει": 377,
      "##ες": 378,
      "στις": 379,
      "στον": 380,
      "αν": 381,
      "κατα": 382,
      "σας": 383,
      "ηταν": 384,
      "οπως": 385,
      "μου": 386,
      "ως": 387,
      "πολυ": 388,
      "##ου": 389,
      "μετα": 390,
      "εχουν": 391,
      "πως": 392,
      "αυτη": 393,
      "##τε": 394,
      "μπορει": 395,
      "πρεπει": 396,
      "...": 397,
      "καθε": 398,
      "μονο": 399,
      "δυο": 400,
      "πιο": 401,
      "οποια": 402,
      "οταν": 403,
      "##ει": 404,
      "κι": 405,
      "ενω": 406,
      "σου": 407,
      "ομως": 408,
      "μεσα": 409,
      "τι": 410,
      "##υς": 411,
      "στους": 412,
      "##ουν": 413,
      "προς": 414,
      "##ης": 415,
      "καθως": 416,
      "ειχε": 417,
      "χρονια": 418,
      "ολα": 419,
      "επι": 420,
      "##τα": 421,
      "μεχρι": 422,
      "οχι": 423,
      "##ος": 424,
      "γιατι": 425,
      "χωρις": 426,
      "10": 427,
      "επισης": 428,
      "παρα": 429,
      "αυτα": 430,
      "οποιο": 431,
      "σημερα": 432,
      "δε": 433,
      "ετσι": 434,
      "εκ": 435,
      "ελλαδα": 436,
      "εν": 437,
      "##με": 438,
      "οπου": 439,
      "ανα": 440,
      "μην": 441,
      "δια": 442,
      "νεα": 443,
      "υπαρχει": 444,
      "υπο": 445,
      "συμφωνα": 446,
      "πριν": 447,
      "τοσο": 448,
      "ενας": 449,
      "ακομα": 450,
      "κανει": 451,
      "μη": 452,
      "κατι": 453,
      "μαζι": 454,
      "οσο": 455,
      "##ια": 456,
      "εδω": 457,
      "σαν": 458,
      "μεταξυ": 459,
      "ευρω": 460,
      "##το": 461,
      "πανω": 462,
      "12": 463,
      "##των": 464,
      "00": 465,
      "προ": 466,
      "##αν": 467,
      "ωστε": 468,
      "20": 469,
      "ενος": 470,
      "ακομη": 471,
      "30": 472,
      "τωρα": 473,
      "τροπο": 474,
      "εναν": 475,
      "πρωτη": 476,
      "τοτε": 477,
      "18": 478,
      "απ": 479,
      "ζωη": 480,
      "θεση": 481,
      "##ους": 482,
      "##οι": 483,
      "15": 484,
      "παιδια": 485,
      "##ουμε": 486,
      "11": 487,
      "μεγαλη": 488,
      "εως": 489,
      "φορα": 490,
      "ομαδα": 491,
      "θεμα": 492,
      "gr": 493,
      "##σε": 494,
      "υπαρχουν": 495,
      "αφου": 496,
      "##ται": 497,
      "περιπτωση": 498,
      "εχουμε": 499,
      "πολλα": 500,
      "2018": 501,
      "γινει": 502,
      "##κα": 503,
      "παντα": 504,
      "μεσω": 505,
      "##ση": 506,
      "##μα": 507,
      "λογω": 508,
      "ουτε": 509,
      "χωρα": 510,
      "αυτες": 511,
      "τελος": 512,
      "χρονο": 513,
      "εκει": 514,
      "αλλο": 515,
      "ολες": 516,
      "##τος": 517,
      "περι": 518,
      "νεο": 519,
      "μερος": 520,
      "##να": 521,
      "πρωτο": 522,
      "μπορουν": 523,
      "καλα": 524,
      "γινεται": 525,
      "ωρα": 526,
      "περιοχη": 527,
      "δηλαδη": 528,
      "ιδια": 529,
      "πλεον": 530,
      "000": 531,
      "##σει": 532,
      "ολοι": 533,
      "προγραμμα": 534,
      "κοσμο": 535,
      "ειχαν": 536,
      "χωρο": 537,
      "βρισκεται": 538,
      "ποτε": 539,
      "αντι": 540,
      "εκτος": 541,
      "λιγο": 542,
      "ειτε": 543,
      "μιας": 544,
      "αλλη": 545,
      "##σαν": 546,
      "διαρκεια": 547,
      "στοιχεια": 548,
      "οποιος": 549,
      "στιγμη": 550,
      "##κο": 551,
      "μεγαλο": 552,
      "αποτελει": 553,
      "ιδιο": 554,
      "εαν": 555,
      "χρηση": 556,
      "##εται": 557,
      "##θει": 558,
      "περισσοτερα": 559,
      "16": 560,
      "σχετικα": 561,
      "συνεχεια": 562,
      "κανεις": 563,
      "##τη": 564,
      "κατω": 565,
      "##τι": 566,
      "πολλες": 567,
      "αποτελεσμα": 568,
      "ηδη": 569,
      "λοιπον": 570,
      "σχεση": 571,
      "14": 572,
      "##λα": 573,
      "βαση": 574,
      "##νε": 575,
      "εχω": 576,
      "17": 577,
      "13": 578,
      "εγινε": 579,
      "συστημα": 580,
      "καποια": 581,
      "ολους": 582,
      "2017": 583,
      "ολο": 584,
      "μπορειτε": 585,
      "the": 586,
      "περιπου": 587,
      "##σα": 588,
      "εγω": 589,
      "αθηνα": 590,
      "καλο": 591,
      "πολιτικη": 592,
      "επειδη": 593,
      "κυβερνηση": 594,
      "γι": 595,
      "##σουν": 596,
      "τελευταια": 597,
      "##ρα": 598,
      "ιστορια": 599,
      "αφορα": 600,
      "ελληνικη": 601,
      "25": 602,
      "περισσοτερο": 603,
      "ποσο": 604,
      "##τες": 605,
      "##κη": 606,
      "κυριως": 607,
      "προκειται": 608,
      "##νο": 609,
      "ονομα": 610,
      "κεντρο": 611,
      "αποφαση": 612,
      "εργο": 613,
      "##λη": 614,
      "19": 615,
      "φορες": 616,
      "αλλες": 617,
      "κατασταση": 618,
      "υπερ": 619,
      "πληροφοριες": 620,
      "ειπε": 621,
      "οποιες": 622,
      "αρθρο": 623,
      "##ας": 624,
      "μαλιστα": 625,
      "ωστοσο": 626,
      "πλαισιο": 627,
      "εργασιας": 628,
      "κανουν": 629,
      "εκανε": 630,
      "ολη": 631,
      "24": 632,
      "2016": 633,
      "λογο": 634,
      "##ονται": 635,
      "ζωης": 636,
      "κα": 637,
      "τιμη": 638,
      "αγορα": 639,
      "αυτος": 640,
      "σπιτι": 641,
      "τμημα": 642,
      "εις": 643,
      "διαδικασια": 644,
      "σειρα": 645,
      "πολη": 646,
      "μελη": 647,
      "50": 648,
      "προβλημα": 649,
      "21": 650,
      "πισω": 651,
      "γεγονος": 652,
      "αναπτυξη": 653,
      "καλη": 654,
      "ισως": 655,
      "μα": 656,
      "##τικα": 657,
      "προεδρος": 658,
      "2015": 659,
      "δυνατοτητα": 660,
      "##ικη": 661,
      "φαινεται": 662,
      "καμια": 663,
      "αρχη": 664,
      "ημερα": 665,
      "ξανα": 666,
      "χωρας": 667,
      "##τικη": 668,
      "ιδιαιτερα": 669,
      "μικρο": 670,
      "κοντα": 671,
      "προκειμενου": 672,
      "λειτουργια": 673,
      "100": 674,
      "εχετε": 675,
      "μερα": 676,
      "##ρι": 677,
      "ωρες": 678,
      "αλλων": 679,
      "##er": 680,
      "ειμαστε": 681,
      "επιπεδο": 682,
      "σημειο": 683,
      "εταιρεια": 684,
      "αγωνα": 685,
      "φυσικα": 686,
      "22": 687,
      "##οντας": 688,
      "θεματα": 689,
      "δημου": 690,
      "αυτου": 691,
      "2014": 692,
      "μολις": 693,
      "παλι": 694,
      "προβληματα": 695,
      "##ετε": 696,
      "περιοδο": 697,
      "απλα": 698,
      "πραγματα": 699,
      "τρεις": 700,
      "##κι": 701,
      "##σεις": 702,
      "εμεις": 703,
      "ειμαι": 704,
      "##ing": 705,
      "##μενη": 706,
      "in": 707,
      "εξω": 708,
      "ανθρωποι": 709,
      "αυτων": 710,
      "διαφορα": 711,
      "##δα": 712,
      "αυτον": 713,
      "ολων": 714,
      "μετρα": 715,
      "λεει": 716,
      "com": 717,
      "ετων": 718,
      "##της": 719,
      "##στα": 720,
      "παρ": 721,
      "##στε": 722,
      "ας": 723,
      "νερο": 724,
      "##θουν": 725,
      "αναμεσα": 726,
      "παραπανω": 727,
      "υπηρεσιες": 728,
      "##ικο": 729,
      "##σω": 730,
      "τελικα": 731,
      "##ρια": 732,
      "23": 733,
      "κατ": 734,
      "σημαντικο": 735,
      "γυρω": 736,
      "εφαρμογη": 737,
      "##θηκε": 738,
      "δειτε": 739,
      "τουλαχιστον": 740,
      "##δο": 741,
      "αυτοι": 742,
      "σχεδον": 743,
      "αυτους": 744,
      "υγειας": 745,
      "προιοντα": 746,
      "to": 747,
      "2013": 748,
      "αρ": 749,
      "χρειαζεται": 750,
      "παιχνιδι": 751,
      "συνεργασια": 752,
      "40": 753,
      "αρχες": 754,
      "##εις": 755,
      "κοινο": 756,
      "αυτην": 757,
      "επιτροπη": 758,
      "αρκετα": 759,
      "##κου": 760,
      "##θε": 761,
      "χωρες": 762,
      "διοτι": 763,
      "ελλαδας": 764,
      "τυπου": 765,
      "ακριβως": 766,
      "επιπλεον": 767,
      "παιδι": 768,
      "##σης": 769,
      "δι": 770,
      "συμμετοχη": 771,
      "επιλογη": 772,
      "σημαινει": 773,
      "εργα": 774,
      "ατομα": 775,
      "of": 776,
      "τομεα": 777,
      "προσπαθεια": 778,
      "παραδειγμα": 779,
      "βιβλιο": 780,
      "##ιων": 781,
      "θελει": 782,
      "##ικα": 783,
      "αποτελεσματα": 784,
      "##σουμε": 785,
      "ημερες": 786,
      "παραλληλα": 787,
      "ελληνες": 788,
      "σωμα": 789,
      "28": 790,
      "##τικες": 791,
      "##κων": 792,
      "εξ": 793,
      "μηνες": 794,
      "##του": 795,
      "ευρωπη": 796,
      "μερες": 797,
      "ανθρωπους": 798,
      "##τει": 799,
      "μπορουσε": 800,
      "δικη": 801,
      "αυτης": 802,
      "μπορουμε": 803,
      "αγαπη": 804,
      "διαστημα": 805,
      "ειδικα": 806,
      "βεβαια": 807,
      "μπροστα": 808,
      "2012": 809,
      "εκθεση": 810,
      "πρωτα": 811,
      "υπηρεσιων": 812,
      "εποχη": 813,
      "##σι": 814,
      "εικονα": 815,
      "##μο": 816,
      "ασφαλειας": 817,
      "##τητα": 818,
      "##λι": 819,
      "δημιουργια": 820,
      "εε": 821,
      "παρουσια": 822,
      "δινει": 823,
      "εντος": 824,
      "δουλεια": 825,
      "26": 826,
      "##μενα": 827,
      "αναγκη": 828,
      "τιποτα": 829,
      "πραγματικα": 830,
      "προσφερει": 831,
      "οσα": 832,
      "προσωπικο": 833,
      "μορφη": 834,
      "##τικο": 835,
      "οποιοι": 836,
      "καποιο": 837,
      "βρισκονται": 838,
      "περισσοτερες": 839,
      "αλλους": 840,
      "ευκαιρια": 841,
      "σκοπο": 842,
      "27": 843,
      "λεπτα": 844,
      "περιβαλλον": 845,
      "καποιος": 846,
      "ηπα": 847,
      "καλυτερα": 848,
      "συγκεκριμενα": 849,
      "πολιτικης": 850,
      "##ιες": 851,
      "στοχο": 852,
      "##ζε": 853,
      "##ρη": 854,
      "ελληνικο": 855,
      "ρολο": 856,
      "βαρος": 857,
      "##πα": 858,
      "αναπτυξης": 859,
      "ομαδας": 860,
      "πολης": 861,
      "##ρο": 862,
      "μεγαλυτερη": 863,
      "μελετη": 864,
      "κατηγορια": 865,
      "ελληνικης": 866,
      "εμπειρια": 867,
      "##δε": 868,
      "λα": 869,
      "ξε": 870,
      "συνολο": 871,
      "πλευρα": 872,
      "περα": 873,
      "##μενο": 874,
      "##ιας": 875,
      "χαρακτηριστικα": 876,
      "πε": 877,
      "τιμες": 878,
      "συχνα": 879,
      "##πο": 880,
      "de": 881,
      "##δες": 882,
      "ομαδες": 883,
      "οποτε": 884,
      "δρομο": 885,
      "29": 886,
      "τρια": 887,
      "δωρεαν": 888,
      "αυξηση": 889,
      "ερευνα": 890,
      "##δια": 891,
      "εαυτο": 892,
      "μουσικη": 893,
      "συνθηκες": 894,
      "οικογενεια": 895,
      "τιτλο": 896,
      "2011": 897,
      "αλλοι": 898,
      "##κης": 899,
      "γυναικες": 900,
      "παρακατω": 901,
      "##θη": 902,
      "πορεια": 903,
      "##ως": 904,
      "πια": 905,
      "βιντεο": 906,
      "προσωπο": 907,
      "προγραμματος": 908,
      "απεναντι": 909,
      "κανουμε": 910,
      "χαρα": 911,
      "επιτροπης": 912,
      "##κες": 913,
      "κοσμου": 914,
      "οικονομικη": 915,
      "διαθετει": 916,
      "##δι": 917,
      "31": 918,
      "νικη": 919,
      "υπηρεσια": 920,
      "περιοχες": 921,
      "##λο": 922,
      "δυναμη": 923,
      "κοινωνια": 924,
      "δευτερο": 925,
      "παρει": 926,
      "δικο": 927,
      "επρεπε": 928,
      "πολλοι": 929,
      "ματια": 930,
      "σχεδιο": 931,
      "αναγκες": 932,
      "κυριακη": 933,
      "##ις": 934,
      "χρωμα": 935,
      "νεες": 936,
      "ειχα": 937,
      "θεο": 938,
      "συν": 939,
      "ρε": 940,
      "συμβουλιου": 941,
      "συστηματος": 942,
      "συριζα": 943,
      "κλπ": 944,
      "μελλον": 945,
      "60": 946,
      "δικαιωμα": 947,
      "αληθεια": 948,
      "ευ": 949,
      "γυναικα": 950,
      "##θηκαν": 951,
      "περιπτωσεις": 952,
      "πεντε": 953,
      "υπουργειο": 954,
      "2010": 955,
      "##κε": 956,
      "βραδυ": 957,
      "συνηθως": 958,
      "πει": 959,
      "εισαι": 960,
      "πρωην": 961,
      "εκπαιδευσης": 962,
      "καλυτερη": 963,
      "ανθρωπος": 964,
      "εκεινη": 965,
      "προστασια": 966,
      "λυση": 967,
      "##νει": 968,
      "εργου": 969,
      "θεσεις": 970,
      "ετος": 971,
      "ιδιος": 972,
      "μειωση": 973,
      "ce": 974,
      "μελος": 975,
      "κρατος": 976,
      "καλυτερο": 977,
      "δευτερη": 978,
      "πρωι": 979,
      "and": 980,
      "εξης": 981,
      "σιγουρα": 982,
      "εταιρειας": 983,
      "μαθητες": 984,
      "αποτελουν": 985,
      "κριση": 986,
      "συμφωνια": 987,
      "νεων": 988,
      "πραγματικοτητα": 989,
      "##δη": 990,
      "δεδομενων": 991,
      "##κια": 992,
      "διευθυνση": 993,
      "θεσσαλονικη": 994,
      "υπ": 995,
      "##λε": 996,
      "ενωση": 997,
      "εθνικη": 998,
      "ανακοινωση": 999,
      "δηλωσε": 1000,
      "σχεδια": 1001,
      "εκδοση": 1002,
      "αθηνων": 1003,
      "παρασκευη": 1004,
      "μικρη": 1005,
      "λειτουργιας": 1006,
      "δραση": 1007,
      "περιλαμβανει": 1008,
      "θεσσαλονικης": 1009,
      "προιοντων": 1010,
      "##τικων": 1011,
      "αγιου": 1012,
      "νεας": 1013,
      "τετοια": 1014,
      "καιρο": 1015,
      "ενδιαφερον": 1016,
      "##σια": 1017,
      "προταση": 1018,
      "αριθμο": 1019,
      "αργοτερα": 1020,
      "πα": 1021,
      "ανω": 1022,
      "βρειτε": 1023,
      "αιωνα": 1024,
      "αρθρου": 1025,
      "αμεσα": 1026,
      "διαφορες": 1027,
      "μηνα": 1028,
      "τριτη": 1029,
      "μεγαλες": 1030,
      "χα": 1031,
      "##ον": 1032,
      "www": 1033,
      "εκπαιδευση": 1034,
      "επιτυχια": 1035,
      "βοηθεια": 1036,
      "μεγαλυτερο": 1037,
      "αρα": 1038,
      "επιχειρησεις": 1039,
      "ενεργειας": 1040,
      "ενεργεια": 1041,
      "##βα": 1042,
      "χερια": 1043,
      "##λια": 1044,
      "υγεια": 1045,
      "σελιδα": 1046,
      "συμβουλιο": 1047,
      "νομου": 1048,
      "##ζει": 1049,
      "προσ": 1050,
      "ευρωπαικη": 1051,
      "δεδομενα": 1052,
      "αναφερει": 1053,
      "εχεις": 1054,
      "πολιτες": 1055,
      "υπουργος": 1056,
      "δωσει": 1057,
      "ποσοστο": 1058,
      "##γα": 1059,
      "μαλλον": 1060,
      "ελεγχο": 1061,
      "αμεσως": 1062,
      "ταυτοχρονα": 1063,
      "γλωσσα": 1064,
      "##es": 1065,
      "σχολειο": 1066,
      "##ed": 1067,
      "ηλικια": 1068,
      "γινονται": 1069,
      "οσον": 1070,
      "οικονομικων": 1071,
      "περιοχης": 1072,
      "εκκλησια": 1073,
      "##al": 1074,
      "παραγωγη": 1075,
      "φωτογραφιες": 1076,
      "βαθμο": 1077,
      "αλλαγη": 1078,
      "γρηγορα": 1079,
      "παει": 1080,
      "αλ": 1081,
      "ξενοδοχειο": 1082,
      "δημοσιο": 1083,
      "διαθεση": 1084,
      "##ματα": 1085,
      "απαντηση": 1086,
      "διπλα": 1087,
      "γνωστο": 1088,
      "χρονου": 1089,
      "αι": 1090,
      "θελω": 1091,
      "καποιες": 1092,
      "πω": 1093,
      "##ικες": 1094,
      "##στη": 1095,
      "αριθμος": 1096,
      "νεου": 1097,
      "οσοι": 1098,
      "ελληνικου": 1099,
      "εκλογες": 1100,
      "##ικων": 1101,
      "νο": 1102,
      "διαταξεις": 1103,
      "εφοσον": 1104,
      "##in": 1105,
      "θελουν": 1106,
      "##οταν": 1107,
      "δημο": 1108,
      "οκτωβριου": 1109,
      "##νια": 1110,
      "επομενη": 1111,
      "##μενων": 1112,
      "##μενες": 1113,
      "πανεπιστημιο": 1114,
      "κοστος": 1115,
      "##μι": 1116,
      "αποψη": 1117,
      "##φα": 1118,
      "πανεπιστημιου": 1119,
      "τελευταιο": 1120,
      "βημα": 1121,
      "δυναμεις": 1122,
      "κυβερνησης": 1123,
      "ενωσης": 1124,
      "εκδηλωση": 1125,
      "ποια": 1126,
      "ανθρωπων": 1127,
      "35": 1128,
      "κοινωνικης": 1129,
      "ειχαμε": 1130,
      "μεσο": 1131,
      "οσους": 1132,
      "σαββατο": 1133,
      "ασφαλεια": 1134,
      "ευκολα": 1135,
      "καν": 1136,
      "παιχνιδια": 1137,
      "δεκα": 1138,
      "γονεις": 1139,
      "##τουν": 1140,
      "σημαντικη": 1141,
      "πηρε": 1142,
      "συζητηση": 1143,
      "##μου": 1144,
      "80": 1145,
      "ταινια": 1146,
      "κανενα": 1147,
      "λογος": 1148,
      "αξια": 1149,
      "νοεμβριου": 1150,
      "αγωνες": 1151,
      "εβδομαδα": 1152,
      "κυρια": 1153,
      "ιουνιου": 1154,
      "##τηκε": 1155,
      "##en": 1156,
      "σημασια": 1157,
      "ξεκινησε": 1158,
      "συ": 1159,
      "σημεια": 1160,
      "ερχεται": 1161,
      "τετοιο": 1162,
      "εκατ": 1163,
      "σα": 1164,
      "ειστε": 1165,
      "##αμε": 1166,
      "ποιος": 1167,
      "παντως": 1168,
      "οποιων": 1169,
      "εργασια": 1170,
      "εθνικης": 1171,
      "αρχικη": 1172,
      "ανθρωπο": 1173,
      "δει": 1174,
      "κανετε": 1175,
      "οποιαδηποτε": 1176,
      "εδωσε": 1177,
      "τεταρτη": 1178,
      "υλικο": 1179,
      "αφορουν": 1180,
      "λογια": 1181,
      "σχεσεις": 1182,
      "δευτερα": 1183,
      "κινηση": 1184,
      "αναφερεται": 1185,
      "συναντηση": 1186,
      "ελ": 1187,
      "αναλογα": 1188,
      "##στο": 1189,
      "κακο": 1190,
      "καθ": 1191,
      "παραγωγης": 1192,
      "δημοκρατιας": 1193,
      "μονη": 1194,
      "κοσμος": 1195,
      "σεπτεμβριου": 1196,
      "τουρκια": 1197,
      "λογους": 1198,
      "##νων": 1199,
      "αγ": 1200,
      "συγκεκριμενο": 1201,
      "ποιοτητα": 1202,
      "εθνικο": 1203,
      "φετος": 1204,
      "καφε": 1205,
      "κανω": 1206,
      "##σο": 1207,
      "μαιου": 1208,
      "εμφανιση": 1209,
      "θεου": 1210,
      "##γε": 1211,
      "παπα": 1212,
      "εσυ": 1213,
      "χαρακτηρα": 1214,
      "χρησης": 1215,
      "εξελιξη": 1216,
      "δημοσια": 1217,
      "νομο": 1218,
      "δημοκρατια": 1219,
      "θελετε": 1220,
      "γενικη": 1221,
      "τμηματος": 1222,
      "υπουργειου": 1223,
      "εχοντας": 1224,
      "##χα": 1225,
      "ελληνων": 1226,
      "στοχος": 1227,
      "##is": 1228,
      "προστασιας": 1229,
      "οικονομια": 1230,
      "ζητημα": 1231,
      "χθες": 1232,
      "δικαιωματα": 1233,
      "##σαμε": 1234,
      "χωριο": 1235,
      "δυστυχως": 1236,
      "ισχυει": 1237,
      "φυσικο": 1238,
      "γιωργος": 1239,
      "παιδιων": 1240,
      "υποθεση": 1241,
      "χρηματα": 1242,
      "κατασκευη": 1243,
      "γη": 1244,
      "μεγαλα": 1245,
      "προσοχη": 1246,
      "καλοκαιρι": 1247,
      "τρι": 1248,
      "ιουλιου": 1249,
      "επ": 1250,
      "επιχειρησεων": 1251,
      "##λου": 1252,
      "ποιοτητας": 1253,
      "45": 1254,
      "500": 1255,
      "γενικα": 1256,
      "δειχνει": 1257,
      "##ξε": 1258,
      "##σεων": 1259,
      "λι": 1260,
      "τροπος": 1261,
      "χιλιαδες": 1262,
      "μικρα": 1263,
      "μερικες": 1264,
      "ελληνικα": 1265,
      "λειτουργει": 1266,
      "ιδεα": 1267,
      "κομματι": 1268,
      "ευρωπαικης": 1269,
      "##ιν": 1270,
      "ειδη": 1271,
      "##us": 1272,
      "διαχειριση": 1273,
      "φως": 1274,
      "κειμενο": 1275,
      "ελεγχου": 1276,
      "μαρτιου": 1277,
      "ιστοσελιδα": 1278,
      "##ρε": 1279,
      "σημαντικα": 1280,
      "δυσκολο": 1281,
      "καρδια": 1282,
      "προγραμματα": 1283,
      "λενε": 1284,
      "##για": 1285,
      "2009": 1286,
      "##μη": 1287,
      "##μενος": 1288,
      "##πε": 1289,
      "υλικα": 1290,
      "αλλαγες": 1291,
      "κο": 1292,
      "90": 1293,
      "απε": 1294,
      "συνολικα": 1295,
      "πραξη": 1296,
      "εξωτερικο": 1297,
      "δουμε": 1298,
      "μαυρο": 1299,
      "μελων": 1300,
      "προιον": 1301,
      "ορους": 1302,
      "γινουν": 1303,
      "συλλογου": 1304,
      "επομενο": 1305,
      "ηθελα": 1306,
      "δημος": 1307,
      "##ιου": 1308,
      "κρατους": 1309,
      "κοινωνικη": 1310,
      "μπορω": 1311,
      "ευθυνη": 1312,
      "αρχικα": 1313,
      "επιχειρηση": 1314,
      "εναντιον": 1315,
      "##ικης": 1316,
      "ημερομηνια": 1317,
      "σταση": 1318,
      "ενημερωση": 1319,
      "on": 1320,
      "προσβαση": 1321,
      "##ζουν": 1322,
      "χαρη": 1323,
      "ταξιδι": 1324,
      "##θα": 1325,
      "70": 1326,
      "φαση": 1327,
      "περιβαλλοντος": 1328,
      "θαλασσα": 1329,
      "παρελθον": 1330,
      "ηρθε": 1331,
      "ετους": 1332,
      "θανατο": 1333,
      "αναμενεται": 1334,
      "αδεια": 1335,
      "δραστηριοτητες": 1336,
      "χωρου": 1337,
      "χωρων": 1338,
      "##λης": 1339,
      "##ρω": 1340,
      "εξι": 1341,
      "λαθος": 1342,
      "χερι": 1343,
      "κε": 1344,
      "καποιοι": 1345,
      "πηγη": 1346,
      "πληρη": 1347,
      "συγκεκριμενη": 1348,
      "γραφειο": 1349,
      "υπηρχε": 1350,
      "εδρα": 1351,
      "##μαν": 1352,
      "προσφορα": 1353,
      "τε": 1354,
      "θεα": 1355,
      "ξερω": 1356,
      "εναντι": 1357,
      "δηλωση": 1358,
      "ελλαδος": 1359,
      "la": 1360,
      "πολιτων": 1361,
      "##ικου": 1362,
      "πεμπτη": 1363,
      "ευρωπαικο": 1364,
      "σωματος": 1365,
      "##ωντας": 1366,
      "εμας": 1367,
      "λιγες": 1368,
      "##νος": 1369,
      "λιγοτερο": 1370,
      "πολιτισμου": 1371,
      "πραγμα": 1372,
      "οργανωση": 1373,
      "οικονομιας": 1374,
      "διαχειρισης": 1375,
      "ειδους": 1376,
      "αγορας": 1377,
      "01": 1378,
      "πολιτικο": 1379,
      "πρωταθλημα": 1380,
      "εξαιρετικα": 1381,
      "βιβλια": 1382,
      "##δων": 1383,
      "επιλογες": 1384,
      "νησι": 1385,
      "υποστηριξη": 1386,
      "τοπο": 1387,
      "εστω": 1388,
      "##νου": 1389,
      "2008": 1390,
      "συμβαινει": 1391,
      "δις": 1392,
      "ειδος": 1393,
      "αμεση": 1394,
      "αλλωστε": 1395,
      "κρατη": 1396,
      "διοικηση": 1397,
      "επιπεδα": 1398,
      "μαχη": 1399,
      "##μενοι": 1400,
      "μερη": 1401,
      "πολλους": 1402,
      "##στει": 1403,
      "αντιμετωπιση": 1404,
      "γερμανια": 1405,
      "200": 1406,
      "κοινωνικο": 1407,
      "αυτοκινητο": 1408,
      "δερμα": 1409,
      "βα": 1410,
      "##τον": 1411,
      "εκαναν": 1412,
      "στ": 1413,
      "γραμμη": 1414,
      "φερει": 1415,
      "υπηρξε": 1416,
      "παρεχει": 1417,
      "μηνυμα": 1418,
      "μερικα": 1419,
      "αξιζει": 1420,
      "θεωρειται": 1421,
      "σχολια": 1422,
      "##τω": 1423,
      "##δου": 1424,
      "εκατομμυρια": 1425,
      "θεατρο": 1426,
      "##ουσε": 1427,
      "μπορεις": 1428,
      "κομμα": 1429,
      "κλιμα": 1430,
      "χωρους": 1431,
      "νερου": 1432,
      "αλλου": 1433,
      "πιστευω": 1434,
      "αποστολη": 1435,
      "παν": 1436,
      "##ia": 1437,
      "μοναδες": 1438,
      "μακρια": 1439,
      "απλως": 1440,
      "σχετικη": 1441,
      "παραμενει": 1442,
      "##th": 1443,
      "νδ": 1444,
      "εφημεριδα": 1445,
      "νομιζω": 1446,
      "προσωπα": 1447,
      "δυνατο": 1448,
      "παραδοση": 1449,
      "εννοια": 1450,
      "μεση": 1451,
      "##ρες": 1452,
      "##κος": 1453,
      "διεθνη": 1454,
      "παιδειας": 1455,
      "09": 1456,
      "στοιχειων": 1457,
      "αποσταση": 1458,
      "θεος": 1459,
      "εσωτερικο": 1460,
      "λιγα": 1461,
      "γνωση": 1462,
      "εξα": 1463,
      "περασει": 1464,
      "κου": 1465,
      "κυριο": 1466,
      "συνδυασμο": 1467,
      "πρωτες": 1468,
      "##τερα": 1469,
      "εναρξη": 1470,
      "δεκεμβριου": 1471,
      "αττικης": 1472,
      "εικονες": 1473,
      "σχολη": 1474,
      "##σιν": 1475,
      "φιλους": 1476,
      "οικονομικα": 1477,
      "προεδρο": 1478,
      "αποφασεις": 1479,
      "##λω": 1480,
      "απριλιου": 1481,
      "##μπα": 1482,
      "2007": 1483,
      "σχημα": 1484,
      "αφορμη": 1485,
      "αυγουστου": 1486,
      "προσωπικου": 1487,
      "προεδρου": 1488,
      "επιθεση": 1489,
      "θελουμε": 1490,
      "χρονος": 1491,
      "θεραπεια": 1492,
      "##μων": 1493,
      "ιανουαριου": 1494,
      "αθηνας": 1495,
      "μαρια": 1496,
      "πολεμο": 1497,
      "μακεδονιας": 1498,
      "φιλο": 1499,
      "εγιναν": 1500,
      "δικτυο": 1501,
      "γιαννης": 1502,
      "περιεχει": 1503,
      "co": 1504,
      "επειτα": 1505,
      "αερα": 1506,
      "##πραγματοποιηθηκε": 1507,
      "##πη": 1508,
      "βοηθησει": 1509,
      "φαγητο": 1510,
      "καρ": 1511,
      "32": 1512,
      "διαφορετικα": 1513,
      "re": 1514,
      "##γκ": 1515,
      "φυση": 1516,
      "αντικειμενο": 1517,
      "ταξη": 1518,
      "##le": 1519,
      "δημοσιου": 1520,
      "στοιχειο": 1521,
      "παραλια": 1522,
      "ανεφερε": 1523,
      "##ονταν": 1524,
      "μηπως": 1525,
      "προσωπικα": 1526,
      "ιδιαιτερη": 1527,
      "δικα": 1528,
      "προτασεις": 1529,
      "ανθρωπου": 1530,
      "κοινη": 1531,
      "μητερα": 1532,
      "for": 1533,
      "εργων": 1534,
      "συνεντευξη": 1535,
      "ουσιαστικα": 1536,
      "υψος": 1537,
      "πολιτικες": 1538,
      "##πι": 1539,
      "##φερ": 1540,
      "καθημερινα": 1541,
      "περιεχομενο": 1542,
      "λε": 1543,
      "εργαζομενων": 1544,
      "πληρως": 1545,
      "εξουσια": 1546,
      "ιστοριας": 1547,
      "αρχισε": 1548,
      "μουσειο": 1549,
      "ηλικιας": 1550,
      "δυνατον": 1551,
      "φεκ": 1552,
      "ευρωπης": 1553,
      "επιφανεια": 1554,
      "οικονομικης": 1555,
      "βουλη": 1556,
      "πλαισια": 1557,
      "εσεις": 1558,
      "συστηματα": 1559,
      "καρα": 1560,
      "εταιρειες": 1561,
      "μετρο": 1562,
      "ποιο": 1563,
      "πο": 1564,
      "δωματιο": 1565,
      "γκολ": 1566,
      "ασκηση": 1567,
      "##σεως": 1568,
      "κεφαλαιο": 1569,
      "υποψη": 1570,
      "##εν": 1571,
      "χρονικο": 1572,
      "φωτογραφια": 1573,
      "κεντρικη": 1574,
      "μεγεθος": 1575,
      "φορεις": 1576,
      "γνωμη": 1577,
      "παγκοσμια": 1578,
      "αναλυση": 1579,
      "σι": 1580,
      "##λες": 1581,
      "εκκλησιας": 1582,
      "##ρων": 1583,
      "τονισε": 1584,
      "by": 1585,
      "νικος": 1586,
      "pro": 1587,
      "καθολου": 1588,
      "##ρου": 1589,
      "περιφερεια": 1590,
      "##λυ": 1591,
      "δημοτικο": 1592,
      "##te": 1593,
      "ποδια": 1594,
      "υψηλης": 1595,
      "07": 1596,
      "05": 1597,
      "##on": 1598,
      "παρουσιαση": 1599,
      "δημοτικου": 1600,
      "τελικο": 1601,
      "ανηκει": 1602,
      "εταιρια": 1603,
      "##κρι": 1604,
      "σπουδων": 1605,
      "κατηγοριες": 1606,
      "βελτιωση": 1607,
      "λαου": 1608,
      "πασοκ": 1609,
      "μοναδικη": 1610,
      "φεστιβαλ": 1611,
      "αιθουσα": 1612,
      "παγκοσμιο": 1613,
      "απογευμα": 1614,
      "επαφη": 1615,
      "χωρος": 1616,
      "αγια": 1617,
      "επικοινωνιας": 1618,
      "σωστη": 1619,
      "##ταν": 1620,
      "μαθηματα": 1621,
      "##νω": 1622,
      "μοναδικο": 1623,
      "επικεφαλης": 1624,
      "ερευνας": 1625,
      "##ζω": 1626,
      "##σετε": 1627,
      "διε": 1628,
      "κρητης": 1629,
      "ουσια": 1630,
      "κατοπιν": 1631,
      "δηλωσεις": 1632,
      "τραπεζα": 1633,
      "ενισχυση": 1634,
      "http": 1635,
      "ρο": 1636,
      "μαρ": 1637,
      "σιγα": 1638,
      "06": 1639,
      "πολεμου": 1640,
      "δα": 1641,
      "##τικης": 1642,
      "κορ": 1643,
      "μυ": 1644,
      "##τερ": 1645,
      "λεξη": 1646,
      "αξιολογηση": 1647,
      "##ζα": 1648,
      "καποιον": 1649,
      "al": 1650,
      "##χρονος": 1651,
      "περισσοτεροι": 1652,
      "ορια": 1653,
      "αριστερα": 1654,
      "μετρων": 1655,
      "φεβρουαριου": 1656,
      "γραφει": 1657,
      "##ρας": 1658,
      "τεσσερις": 1659,
      "συμμετοχης": 1660,
      "κινδυνο": 1661,
      "μονον": 1662,
      "ειδικη": 1663,
      "βιο": 1664,
      "οποιου": 1665,
      "οδηγιες": 1666,
      "αλλαξει": 1667,
      "αναφορα": 1668,
      "εποχης": 1669,
      "ακολουθει": 1670,
      "ντε": 1671,
      "παικτες": 1672,
      "##os": 1673,
      "##ουσαν": 1674,
      "ψυχη": 1675,
      "##ηθει": 1676,
      "κυπρο": 1677,
      "ει": 1678,
      "καταστημα": 1679,
      "δημητρης": 1680,
      "λου": 1681,
      "πραγματοποιηθει": 1682,
      "αποκλειστικα": 1683,
      "αποδοση": 1684,
      "##or": 1685,
      "##ινα": 1686,
      "##εκ": 1687,
      "ενοτητα": 1688,
      "τεχνολογια": 1689,
      "ευχαριστω": 1690,
      "λαο": 1691,
      "ευκολο": 1692,
      "πλατεια": 1693,
      "τραγουδι": 1694,
      "ξενοδοχεια": 1695,
      "##ζαν": 1696,
      "αρεσει": 1697,
      "##ξα": 1698,
      "αιτηση": 1699,
      "επιτρεπει": 1700,
      "08": 1701,
      "##ma": 1702,
      "επικοινωνια": 1703,
      "μυαλο": 1704,
      "επιστροφη": 1705,
      "πολιτικων": 1706,
      "παροχη": 1707,
      "αντιστοιχα": 1708,
      "δικαιωματων": 1709,
      "ατομο": 1710,
      "πατερα": 1711,
      "33": 1712,
      "λευκο": 1713,
      "υπαρξει": 1714,
      "πεδιο": 1715,
      "μοντελο": 1716,
      "μεταφορα": 1717,
      "παρουσιαζει": 1718,
      "##ξη": 1719,
      "οποιους": 1720,
      "##ουσα": 1721,
      "##an": 1722,
      "επε": 1723,
      "##τηκαν": 1724,
      "επισκεψη": 1725,
      "καταφερε": 1726,
      "τεχνης": 1727,
      "εκδηλωσεις": 1728,
      "εργασιες": 1729,
      "τμηματα": 1730,
      "online": 1731,
      "δραστηριοτητα": 1732,
      "αυριο": 1733,
      "##id": 1734,
      "##νουν": 1735,
      "##νται": 1736,
      "βια": 1737,
      "κοκκινο": 1738,
      "εντελως": 1739,
      "##ta": 1740,
      "μηκος": 1741,
      "##γη": 1742,
      "##σου": 1743,
      "συλλογη": 1744,
      "απωλεια": 1745,
      "ταξης": 1746,
      "κυπρου": 1747,
      "απαιτειται": 1748,
      "χρησιμοποιειται": 1749,
      "προσφατα": 1750,
      "φωνη": 1751,
      "δημιουργει": 1752,
      "σχολεια": 1753,
      "χρηστες": 1754,
      "πρωθυπουργος": 1755,
      "βρει": 1756,
      "ιστορικο": 1757,
      "παλια": 1758,
      "el": 1759,
      "σημερινη": 1760,
      "αιτια": 1761,
      "τεραστια": 1762,
      "σωστα": 1763,
      "αιμα": 1764,
      "ζητηματα": 1765,
      "τεχνη": 1766,
      "02": 1767,
      "χρονων": 1768,
      "νεους": 1769,
      "πηγες": 1770,
      "##20": 1771,
      "ξεκινησει": 1772,
      "γυναικων": 1773,
      "εκεινο": 1774,
      "ελευθερια": 1775,
      "facebook": 1776,
      "παρασταση": 1777,
      "συνεχως": 1778,
      "πρωτος": 1779,
      "ερθει": 1780,
      "##τρε": 1781,
      "##βο": 1782,
      "παμε": 1783,
      "νοσοκομειο": 1784,
      "περαιτερω": 1785,
      "διοικησης": 1786,
      "υστερα": 1787,
      "##ντα": 1788,
      "04": 1789,
      "επισκεπτες": 1790,
      "κατευθυνση": 1791,
      "παρον": 1792,
      "αλλος": 1793,
      "παιζει": 1794,
      "χρωματα": 1795,
      "εισαγωγη": 1796,
      "σελ": 1797,
      "υπηρεσιας": 1798,
      "##τερη": 1799,
      "δειχνουν": 1800,
      "βασει": 1801,
      "κοινωνιας": 1802,
      "χρησιμοποιει": 1803,
      "αγιο": 1804,
      "διαδικασιες": 1805,
      "##βι": 1806,
      "λογαριασμο": 1807,
      "συμπεριφορα": 1808,
      "αγιος": 1809,
      "##ers": 1810,
      "38": 1811,
      "36": 1812,
      "αισθηση": 1813,
      "παρε": 1814,
      "πινακα": 1815,
      "απλη": 1816,
      "κρεμα": 1817,
      "##φη": 1818,
      "##ζεται": 1819,
      "σταδιο": 1820,
      "αφ": 1821,
      "ηθελε": 1822,
      "συντομα": 1823,
      "03": 1824,
      "φυσικη": 1825,
      "ειδικο": 1826,
      "βρεθηκε": 1827,
      "τυχον": 1828,
      "εναντια": 1829,
      "γαλα": 1830,
      "οδηγει": 1831,
      "ανε": 1832,
      "τριτο": 1833,
      "##τητας": 1834,
      "δινουν": 1835,
      "##ομαστε": 1836,
      "πανε": 1837,
      "γεγονοτα": 1838,
      "πνευμα": 1839,
      "συμπεριλαμβανο": 1840,
      "##ριο": 1841,
      "##ελ": 1842,
      "αγορες": 1843,
      "συλλογος": 1844,
      "οικονομικο": 1845,
      "δω": 1846,
      "μπλε": 1847,
      "σεζον": 1848,
      "##ζη": 1849,
      "ερωτηση": 1850,
      "διεθνους": 1851,
      "γνωστη": 1852,
      "περιοδου": 1853,
      "##δης": 1854,
      "τραγουδια": 1855,
      "συνδεση": 1856,
      "##ψε": 1857,
      "##ar": 1858,
      "ειδικοτερα": 1859,
      "λαος": 1860,
      "ανακοινωσε": 1861,
      "αρκετες": 1862,
      "2000": 1863,
      "κοινου": 1864,
      "ημερων": 1865,
      "τελευταιες": 1866,
      "στιγμες": 1867,
      "μπαρ": 1868,
      "οθονη": 1869,
      "προκαλει": 1870,
      "κυριε": 1871,
      "τσι": 1872,
      "##νης": 1873,
      "ελα": 1874,
      "λεπτο": 1875,
      "ερωτημα": 1876,
      "καθηγητης": 1877,
      "ωραια": 1878,
      "γενικο": 1879,
      "κοινοτητα": 1880,
      "ευρωπαικου": 1881,
      "προσεγγιση": 1882,
      "κεντρου": 1883,
      "ανδρες": 1884,
      "μνημη": 1885,
      "γεννηθηκε": 1886,
      "κομματος": 1887,
      "εξαιρετικη": 1888,
      "ανωτερω": 1889,
      "ματς": 1890,
      "ορο": 1891,
      "νομος": 1892,
      "παιρνει": 1893,
      "##σμα": 1894,
      "##τερο": 1895,
      "ρα": 1896,
      "300": 1897,
      "##γει": 1898,
      "πελατες": 1899,
      "δικαιο": 1900,
      "##βη": 1901,
      "ωραιο": 1902,
      "##um": 1903,
      "εγκριση": 1904,
      "δυνατη": 1905,
      "επομενως": 1906,
      "##ντ": 1907,
      "επιστολη": 1908,
      "τεχνολογιας": 1909,
      "λογικη": 1910,
      "34": 1911,
      "περασε": 1912,
      "2006": 1913,
      "διαδικτυο": 1914,
      "απαιτησεις": 1915,
      "δρασης": 1916,
      "λαβει": 1917,
      "φωτια": 1918,
      "le": 1919,
      "καταλληλο": 1920,
      "βασικο": 1921,
      "μαθητων": 1922,
      "συνεδριο": 1923,
      "be": 1924,
      "αποτελειται": 1925,
      "τεχνικη": 1926,
      "συνεργασιας": 1927,
      "συνεπεια": 1928,
      "##ποιηση": 1929,
      "μουσικης": 1930,
      "κριτικη": 1931,
      "πολεις": 1932,
      "##βε": 1933,
      "διατροφη": 1934,
      "εμφανιζεται": 1935,
      "βι": 1936,
      "##it": 1937,
      "αντιθετα": 1938,
      "κρισης": 1939,
      "μπε": 1940,
      "τριων": 1941,
      "βορεια": 1942,
      "##ντι": 1943,
      "γαλλια": 1944,
      "ισχυ": 1945,
      "περ": 1946,
      "δικαιου": 1947,
      "##ιδης": 1948,
      "##10": 1949,
      "δεξια": 1950,
      "οποιοδηποτε": 1951,
      "##ro": 1952,
      "σκεψη": 1953,
      "σχολειου": 1954,
      "μαθημα": 1955,
      "στηριξη": 1956,
      "λυσεις": 1957,
      "γης": 1958,
      "οικογενειας": 1959,
      "τοπικη": 1960,
      "αποφασης": 1961,
      "##ισμου": 1962,
      "##θω": 1963,
      "υπαρξη": 1964,
      "υπολογιστη": 1965,
      "εσας": 1966,
      "##λει": 1967,
      "##τσα": 1968,
      "κεφαλι": 1969,
      "##ter": 1970,
      "ερχονται": 1971,
      "μπορουσαν": 1972,
      "video": 1973,
      "κυριος": 1974,
      "αστυνομια": 1975,
      "μπαλα": 1976,
      "ενεργειες": 1977,
      "προυποθεσεις": 1978,
      "προφανως": 1979,
      "##ησει": 1980,
      "φτασει": 1981,
      "δυνατοτητες": 1982,
      "δημαρχος": 1983,
      "τοποθεσια": 1984,
      "συνεχιζει": 1985,
      "ιταλια": 1986,
      "εμ": 1987,
      "λιστα": 1988,
      "προσωπικη": 1989,
      "τροφιμων": 1990,
      "δημοσιων": 1991,
      "παραγοντες": 1992,
      "μερους": 1993,
      "ληψη": 1994,
      "λυ": 1995,
      "οδο": 1996,
      "στελεχη": 1997,
      "##λων": 1998,
      "ιερο": 1999,
      "χλμ": 2000,
      "επτα": 2001,
      "διαφορετικο": 2002,
      "νυχτα": 2003,
      "διακοπες": 2004,
      "##χη": 2005,
      "βρεθει": 2006,
      "προηγουμενο": 2007,
      "τραπεζες": 2008,
      "no": 2009,
      "τελη": 2010,
      "ρωσια": 2011,
      "οργανισμου": 2012,
      "αλλιως": 2013,
      "μικρες": 2014,
      "##ανα": 2015,
      "μεινει": 2016,
      "ικανοτητα": 2017,
      "απλο": 2018,
      "προσπαθειες": 2019,
      "εφαρμογης": 2020,
      "προκυπτει": 2021,
      "##αι": 2022,
      "τηλεφωνο": 2023,
      "ασθενεις": 2024,
      "me": 2025,
      "ειδησεις": 2026,
      "##τας": 2027,
      "βαρους": 2028,
      "2019": 2029,
      "προσφερουν": 2030,
      "τροπους": 2031,
      "τυπο": 2032,
      "##man": 2033,
      "ατομων": 2034,
      "εξελιξεις": 2035,
      "##co": 2036,
      "τεσσερα": 2037,
      "αεκ": 2038,
      "σημαντικες": 2039,
      "αξιας": 2040,
      "κανονες": 2041,
      "ιδανικο": 2042,
      "λεω": 2043,
      "εκεινος": 2044,
      "παρεα": 2045,
      "δρασεις": 2046,
      "ολοκληρωση": 2047,
      "ελαβε": 2048,
      "κινημα": 2049,
      "θερμοκρασια": 2050,
      "παιδιου": 2051,
      "ολοκληρη": 2052,
      "ιδεες": 2053,
      "κανοντας": 2054,
      "αποφασισε": 2055,
      "##φο": 2056,
      "θαυμα": 2057,
      "75": 2058,
      "39": 2059,
      "##ακι": 2060,
      "επισημη": 2061,
      "εξωτερικων": 2062,
      "δικτυου": 2063,
      "απολυτη": 2064,
      "εκπαιδευτικων": 2065,
      "##στ": 2066,
      "ημερας": 2067,
      "συμμετεχουν": 2068,
      "πλειοψηφια": 2069,
      "ομορφο": 2070,
      "##ξει": 2071,
      "μεγαλου": 2072,
      "##νιο": 2073,
      "φιλοι": 2074,
      "##θουμε": 2075,
      "##ιδα": 2076,
      "ημουν": 2077,
      "συμ": 2078,
      "##ρει": 2079,
      "##ζονται": 2080,
      "μακεδονια": 2081,
      "ταχυτητα": 2082,
      "εκδοσεις": 2083,
      "δυναμεων": 2084,
      "ελλειψη": 2085,
      "##to": 2086,
      "##τρο": 2087,
      "απολυτα": 2088,
      "μοναδα": 2089,
      "ετη": 2090,
      "##κτη": 2091,
      "2004": 2092,
      "καταστασεις": 2093,
      "πορτα": 2094,
      "χρυσο": 2095,
      "υπουργου": 2096,
      "απαντησεις": 2097,
      "νεος": 2098,
      "περιφερειας": 2099,
      "κεντρικο": 2100,
      "ηλεκτρονικο": 2101,
      "αρχιζει": 2102,
      "λες": 2103,
      "ζει": 2104,
      "διαφορετικες": 2105,
      "συσκευη": 2106,
      "σπιτια": 2107,
      "##ντο": 2108,
      "μοιρα": 2109,
      "μεγαλης": 2110,
      "φοιτητες": 2111,
      "περιγραφη": 2112,
      "##χο": 2113,
      "home": 2114,
      "μο": 2115,
      "##ουνται": 2116,
      "πιεση": 2117,
      "υπεροχο": 2118,
      "γνωριζει": 2119,
      "μπει": 2120,
      "τραπεζι": 2121,
      "διεθνες": 2122,
      "κωστας": 2123,
      "##μπ": 2124,
      "37": 2125,
      "αναρτηση": 2126,
      "ελεγε": 2127,
      "εξαιτιας": 2128,
      "πειραια": 2129,
      "αρχισει": 2130,
      "διαδρομη": 2131,
      "σκηνη": 2132,
      "απαραιτητο": 2133,
      "##ζουμε": 2134,
      "ορος": 2135,
      "ρι": 2136,
      "γιαννη": 2137,
      "προηγουμενη": 2138,
      "##at": 2139,
      "χαρακτηριστικο": 2140,
      "σκορ": 2141,
      "##μενου": 2142,
      "αποψεις": 2143,
      "λεξεις": 2144,
      "βλεπουμε": 2145,
      "επα": 2146,
      "ενημερωσης": 2147,
      "παοκ": 2148,
      "καταστηματα": 2149,
      "προσπαθει": 2150,
      "γραφεια": 2151,
      "##σον": 2152,
      "προιοντος": 2153,
      "φωτο": 2154,
      "εμενα": 2155,
      "λεπτομερειες": 2156,
      "##δει": 2157,
      "γραμμες": 2158,
      "##mm": 2159,
      "ποσοτητα": 2160,
      "εξετασεις": 2161,
      "43": 2162,
      "τελικη": 2163,
      "##re": 2164,
      "υψηλη": 2165,
      "αρχαια": 2166,
      "##ομαι": 2167,
      "##il": 2168,
      "##ly": 2169,
      "διαβαστε": 2170,
      "εγκατασταση": 2171,
      "##ρης": 2172,
      "##de": 2173,
      "προσκληση": 2174,
      "ξερει": 2175,
      "##τσι": 2176,
      "καθημερινη": 2177,
      "συμβαση": 2178,
      "##ερ": 2179,
      "καταναλωση": 2180,
      "ομαδων": 2181,
      "στυλ": 2182,
      "αντιθεση": 2183,
      "##ry": 2184,
      "en": 2185,
      "εγ": 2186,
      "πι": 2187,
      "δεκαετια": 2188,
      "δημιουργησει": 2189,
      "τομεις": 2190,
      "##ic": 2191,
      "πιστη": 2192,
      "αριθμ": 2193,
      "παρουσα": 2194,
      "πρωτοβουλια": 2195,
      "##τρα": 2196,
      "ολοκληρο": 2197,
      "εγκαταστασεις": 2198,
      "2005": 2199,
      "μαλλια": 2200,
      "##δω": 2201,
      "τηλεοραση": 2202,
      "55": 2203,
      "ρυθμιση": 2204,
      "σχολης": 2205,
      "##ch": 2206,
      "δωρο": 2207,
      "πολλων": 2208,
      "τσιπρας": 2209,
      "μενα": 2210,
      "βιβλιου": 2211,
      "πατερας": 2212,
      "42": 2213,
      "ελεγχος": 2214,
      "βασικα": 2215,
      "βαθια": 2216,
      "επιχειρησης": 2217,
      "δωματια": 2218,
      "εδαφος": 2219,
      "γηπεδο": 2220,
      "##ra": 2221,
      "εισοδο": 2222,
      "μισο": 2223,
      "επανω": 2224,
      "κεντρα": 2225,
      "ελπιδα": 2226,
      "μεγαλων": 2227,
      "νοημα": 2228,
      "διαφορετικη": 2229,
      "χρηστη": 2230,
      "κρητη": 2231,
      "κομματια": 2232,
      "δυσκολη": 2233,
      "ηλιο": 2234,
      "ηλεκτρονικη": 2235,
      "καθαρα": 2236,
      "ζε": 2237,
      "λεμε": 2238,
      "##σιμο": 2239,
      "ερ": 2240,
      "εντολη": 2241,
      "μεσημερι": 2242,
      "κλικ": 2243,
      "χρησιμοποιωντας": 2244,
      "bar": 2245,
      "υπηρχαν": 2246,
      "##ρος": 2247,
      "πατριδα": 2248,
      "##ne": 2249,
      "πιθανο": 2250,
      "##ιος": 2251,
      "πραγματικη": 2252,
      "καθεστως": 2253,
      "ποσα": 2254,
      "εργασιων": 2255,
      "##τικου": 2256,
      "ορισμενες": 2257,
      "χρησιμοποιουν": 2258,
      "##st": 2259,
      "ποικιλια": 2260,
      "ντα": 2261,
      "καπου": 2262,
      "γευση": 2263,
      "συνεδριαση": 2264,
      "αναφερονται": 2265,
      "διευθυντης": 2266,
      "##γκα": 2267,
      "εκτελεση": 2268,
      "τσιπρα": 2269,
      "υποχρεωσεις": 2270,
      "καθαρο": 2271,
      "44": 2272,
      "εγραψε": 2273,
      "συνε": 2274,
      "νοτια": 2275,
      "καλυτερες": 2276,
      "ζωα": 2277,
      "υπουργο": 2278,
      "news": 2279,
      "βο": 2280,
      "καθενας": 2281,
      "ηλεκτρονικου": 2282,
      "ευκολη": 2283,
      "##ωθει": 2284,
      "οργανισμο": 2285,
      "δημοσιας": 2286,
      "καντε": 2287,
      "πραγματικο": 2288,
      "##ωμα": 2289,
      "##δικα": 2290,
      "προσωπου": 2291,
      "υψους": 2292,
      "δρομους": 2293,
      "48": 2294,
      "##κιν": 2295,
      "ατμοσφαιρα": 2296,
      "##ωνει": 2297,
      "41": 2298,
      "καταστροφη": 2299,
      "τηλ": 2300,
      "πληροφοριων": 2301,
      "δυτικης": 2302,
      "σχεδιασμο": 2303,
      "##ge": 2304,
      "σκοπος": 2305,
      "προσφορες": 2306,
      "θε": 2307,
      "επεξεργασια": 2308,
      "νου": 2309,
      "##ζοντας": 2310,
      "στοχους": 2311,
      "τοποθετηση": 2312,
      "##νοι": 2313,
      "υλοποιηση": 2314,
      "##et": 2315,
      "ομιλια": 2316,
      "προβολη": 2317,
      "τοπου": 2318,
      "αντιδραση": 2319,
      "##ντας": 2320,
      "εφτασε": 2321,
      "πολιτικα": 2322,
      "οργανα": 2323,
      "υπολοιπα": 2324,
      "φιλικο": 2325,
      "καλυψη": 2326,
      "δομη": 2327,
      "θεωρει": 2328,
      "απαραιτητη": 2329,
      "εφ": 2330,
      "διαφορων": 2331,
      "εθνικου": 2332,
      "πραγματι": 2333,
      "σωστο": 2334,
      "επιτρεπεται": 2335,
      "κατε": 2336,
      "γνωριζουμε": 2337,
      "##λας": 2338,
      "##μια": 2339,
      "βαθος": 2340,
      "ξεκινα": 2341,
      "πρωινο": 2342,
      "##οπουλος": 2343,
      "αρκει": 2344,
      "εργαζομενους": 2345,
      "##ακια": 2346,
      "##ινη": 2347,
      "τεχνικες": 2348,
      "σχετικο": 2349,
      "κανενας": 2350,
      "##τυ": 2351,
      "##εσαι": 2352,
      "αιτημα": 2353,
      "βαθμους": 2354,
      "σοβαρα": 2355,
      "##na": 2356,
      "ορ": 2357,
      "κειμενα": 2358,
      "τω": 2359,
      "υποχρεωση": 2360,
      "αμ": 2361,
      "κρα": 2362,
      "απολυτως": 2363,
      "βαρ": 2364,
      "##μος": 2365,
      "μμε": 2366,
      "##ot": 2367,
      "πτωση": 2368,
      "live": 2369,
      "συνθεση": 2370,
      "χριστου": 2371,
      "κορη": 2372,
      "##κας": 2373,
      "κυ": 2374,
      "επανα": 2375,
      "ιδιοι": 2376,
      "##ηση": 2377,
      "κω": 2378,
      "sa": 2379,
      "##νουμε": 2380,
      "νησια": 2381,
      "##χει": 2382,
      "γα": 2383,
      "ταινιες": 2384,
      "##θο": 2385,
      "πληθυσμου": 2386,
      "αργα": 2387,
      "ισραηλ": 2388,
      "##ην": 2389,
      "θεωρια": 2390,
      "εντονη": 2391,
      "λο": 2392,
      "400": 2393,
      "συνεπως": 2394,
      "##ξι": 2395,
      "απευθειας": 2396,
      "πληθος": 2397,
      "βλεπω": 2398,
      "μελετες": 2399,
      "πλανητη": 2400,
      "ειδικες": 2401,
      "κορυφη": 2402,
      "ιερα": 2403,
      "συγγραφεας": 2404,
      "αρχης": 2405,
      "πραξεις": 2406,
      "##ie": 2407,
      "ιωαννης": 2408,
      "##χρησιμοποιουνται": 2409,
      "αγωνιστικη": 2410,
      "γεν": 2411,
      "σημα": 2412,
      "φαινομενο": 2413,
      "βλεπει": 2414,
      "##io": 2415,
      "αμα": 2416,
      "σοβαρο": 2417,
      "συμβει": 2418,
      "ονοματα": 2419,
      "γνωριζουν": 2420,
      "συστηματων": 2421,
      "χασει": 2422,
      "##λευ": 2423,
      "γωνια": 2424,
      "κατοικους": 2425,
      "λιμανι": 2426,
      "κινητο": 2427,
      "πηγε": 2428,
      "κατασκευης": 2429,
      "site": 2430,
      "ομορφη": 2431,
      "65": 2432,
      "στρατηγικη": 2433,
      "τουρκιας": 2434,
      "αγωνας": 2435,
      "αιγαιου": 2436,
      "google": 2437,
      "απαραιτητα": 2438,
      "αξιολογησης": 2439,
      "ομιλου": 2440,
      "##ακη": 2441,
      "αντικειμενα": 2442,
      "τυπος": 2443,
      "παλιο": 2444,
      "πουμε": 2445,
      "εργαλεια": 2446,
      "##ησε": 2447,
      "αρχειο": 2448,
      "##as": 2449,
      "υποστηριζει": 2450,
      "ιστορικη": 2451,
      "ετοιμα": 2452,
      "δρ": 2453,
      "##φων": 2454,
      "150": 2455,
      "εβδομαδες": 2456,
      "οριο": 2457,
      "συγκεντρωση": 2458,
      "league": 2459,
      "τυχη": 2460,
      "##ριου": 2461,
      "συγκριση": 2462,
      "κινησεις": 2463,
      "εφαρμογες": 2464,
      "di": 2465,
      "κουζινα": 2466,
      "ελληνικων": 2467,
      "ρουχα": 2468,
      "##ιζει": 2469,
      "καποτε": 2470,
      "##στουν": 2471,
      "βγει": 2472,
      "διαδικασιας": 2473,
      "φερ": 2474,
      "συμβουλος": 2475,
      "κωστα": 2476,
      "πρασινο": 2477,
      "κομματα": 2478,
      "##30": 2479,
      "κριτηρια": 2480,
      "σημειωσε": 2481,
      "προυπολογισμου": 2482,
      "οδηγησει": 2483,
      "##ce": 2484,
      "εξυπηρετηση": 2485,
      "##γο": 2486,
      "λειτουργουν": 2487,
      "ελαχιστο": 2488,
      "##δρα": 2489,
      "ro": 2490,
      "##υσε": 2491,
      "super": 2492,
      "βηματα": 2493,
      "εξαιρετικο": 2494,
      "συμφεροντα": 2495,
      "δοθει": 2496,
      "εμφανιζονται": 2497,
      "##αρ": 2498,
      "ερευνες": 2499,
      "st": 2500,
      "##ματος": 2501,
      "απαιτει": 2502,
      "χρειαζονται": 2503,
      "##ορ": 2504,
      "συγχρονη": 2505,
      "συμβασης": 2506,
      "προγραμματων": 2507,
      "κινα": 2508,
      "##el": 2509,
      "ζη": 2510,
      "πασα": 2511,
      "νερα": 2512,
      "διαστασεις": 2513,
      "διαγωνισμο": 2514,
      "χρειαστει": 2515,
      "##ur": 2516,
      "δικαστηριο": 2517,
      "φτανει": 2518,
      "πρωταθληματος": 2519,
      "βασικη": 2520,
      "μπο": 2521,
      "βραβειο": 2522,
      "αμερικη": 2523,
      "μιλαμε": 2524,
      "σπα": 2525,
      "κοινωνικων": 2526,
      "##ωσει": 2527,
      "επιστημονες": 2528,
      "οικογενειες": 2529,
      "##μερ": 2530,
      "ζουν": 2531,
      "εσωτερικη": 2532,
      "μοιαζει": 2533,
      "αγιας": 2534,
      "παντου": 2535,
      "κυκλοφορια": 2536,
      "##μενης": 2537,
      "##ion": 2538,
      "χωρια": 2539,
      "γιορτη": 2540,
      "ειδα": 2541,
      "γεωργιος": 2542,
      "ελληνας": 2543,
      "μονος": 2544,
      "κκε": 2545,
      "νε": 2546,
      "βουλευτης": 2547,
      "ζητησε": 2548,
      "παρουν": 2549,
      "##κει": 2550,
      "ονομασια": 2551,
      "εστια": 2552,
      "##στρα": 2553,
      "##στηκαν": 2554,
      "μι": 2555,
      "λπ": 2556,
      "##φι": 2557,
      "##da": 2558,
      "##12": 2559,
      "εκτιμηση": 2560,
      "##se": 2561,
      "σω": 2562,
      "τει": 2563,
      "οφειλεται": 2564,
      "στε": 2565,
      "##λος": 2566,
      "προωθηση": 2567,
      "αναλαβει": 2568,
      "δελτιο": 2569,
      "συσκευες": 2570,
      "ισο": 2571,
      "##δυ": 2572,
      "##ine": 2573,
      "##κινη": 2574,
      "μεγαλος": 2575,
      "αξιο": 2576,
      "##ακης": 2577,
      "ειδε": 2578,
      "69": 2579,
      "do": 2580,
      "##pa": 2581,
      "αναζητηση": 2582,
      "εκπροσωπος": 2583,
      "πλουσια": 2584,
      "ιδρυμα": 2585,
      "μεταφορας": 2586,
      "σχεδιου": 2587,
      "##συ": 2588,
      "##ανε": 2589,
      "διεθνεις": 2590,
      "δικες": 2591,
      "εργαλειο": 2592,
      "κοντρα": 2593,
      "βοηθα": 2594,
      "is": 2595,
      "γενικης": 2596,
      "κοινοτητας": 2597,
      "##40": 2598,
      "car": 2599,
      "αριθ": 2600,
      "ερωτησεις": 2601,
      "δοξα": 2602,
      "##καν": 2603,
      "κατοικοι": 2604,
      "ιδιαιτερο": 2605,
      "##ul": 2606,
      "κρασι": 2607,
      "θανατου": 2608,
      "σχεσεων": 2609,
      "##60": 2610,
      "##σιο": 2611,
      "γλωσσας": 2612,
      "##τρια": 2613,
      "εξοδα": 2614,
      "web": 2615,
      "ταση": 2616,
      "διαθεσιμο": 2617,
      "βασικες": 2618,
      "ελευθερη": 2619,
      "ελληνικες": 2620,
      "αρθρα": 2621,
      "##νεται": 2622,
      "##ειται": 2623,
      "παντοτε": 2624,
      "##αλ": 2625,
      "καταλληλη": 2626,
      "##50": 2627,
      "νησιου": 2628,
      "επισημα": 2629,
      "τεραστιο": 2630,
      "καταργηση": 2631,
      "κεντρικης": 2632,
      "δυσ": 2633,
      "οικονομικες": 2634,
      "μιλησε": 2635,
      "σταθμο": 2636,
      "##μεν": 2637,
      "αφηνει": 2638,
      "φορεα": 2639,
      "βαλει": 2640,
      "διαθετουν": 2641,
      "τετοιες": 2642,
      "υπεροχη": 2643,
      "επιλογης": 2644,
      "##αρι": 2645,
      "κατηγοριας": 2646,
      "νεοι": 2647,
      "θεσεων": 2648,
      "δημητρη": 2649,
      "συγ": 2650,
      "γιο": 2651,
      "εκανα": 2652,
      "κωνσταντινος": 2653,
      "νομοθεσια": 2654,
      "##εστε": 2655,
      "fi": 2656,
      "διαγωνισμου": 2657,
      "##ινο": 2658,
      "εκπομπη": 2659,
      "γνωσεις": 2660,
      "σοφια": 2661,
      "περιοδικο": 2662,
      "υποβολη": 2663,
      "κτιριο": 2664,
      "πρακτικη": 2665,
      "μορφες": 2666,
      "blog": 2667,
      "θετικη": 2668,
      "##μενους": 2669,
      "##σκα": 2670,
      "υπολοιπο": 2671,
      "οδηγος": 2672,
      "46": 2673,
      "ενταση": 2674,
      "διοργανωση": 2675,
      "σκληρο": 2676,
      "περαν": 2677,
      "διατηρει": 2678,
      "καλες": 2679,
      "πλοιο": 2680,
      "ξενοδοχειου": 2681,
      "2003": 2682,
      "##ηθουν": 2683,
      "##τια": 2684,
      "επαγγελματιες": 2685,
      "εξεταση": 2686,
      "διατηρηση": 2687,
      "ζωνη": 2688,
      "οργανωσης": 2689,
      "εργαζομενοι": 2690,
      "προερχεται": 2691,
      "χρεος": 2692,
      "##ναν": 2693,
      "καιρος": 2694,
      "email": 2695,
      "αφησε": 2696,
      "σκεψεις": 2697,
      "εγγραφη": 2698,
      "χαρτι": 2699,
      "καρτα": 2700,
      "##χε": 2701,
      "τιποτε": 2702,
      "τραμπ": 2703,
      "ζω": 2704,
      "##σαι": 2705,
      "δηλ": 2706,
      "2001": 2707,
      "μπου": 2708,
      "na": 2709,
      "at": 2710,
      "σπορ": 2711,
      "αυτοκινητου": 2712,
      "χαρ": 2713,
      "##γων": 2714,
      "δυσκολα": 2715,
      "τουρισμου": 2716,
      "συνταγμα": 2717,
      "##ωση": 2718,
      "μπα": 2719,
      "κυκλο": 2720,
      "συναισθηματα": 2721,
      "ορισμενα": 2722,
      "εφερε": 2723,
      "χρεους": 2724,
      "κρι": 2725,
      "cf": 2726,
      "δυναμικη": 2727,
      "κοινωνικες": 2728,
      "εσοδα": 2729,
      "θεωρω": 2730,
      "καπως": 2731,
      "αντ": 2732,
      "210": 2733,
      "##στες": 2734,
      "τελειο": 2735,
      "διατροφης": 2736,
      "ταμειο": 2737,
      "συνεπειες": 2738,
      "τραπεζας": 2739,
      "προκαλεσει": 2740,
      "συμμετεχει": 2741,
      "##ti": 2742,
      "αλλαζει": 2743,
      "ρυθμισεις": 2744,
      "ιστοριες": 2745,
      "##σμο": 2746,
      "επεκταση": 2747,
      "κωδικα": 2748,
      "τελεια": 2749,
      "##κλη": 2750,
      "λεγεται": 2751,
      "##ικος": 2752,
      "σεξ": 2753,
      "ιδιως": 2754,
      "ανηκουν": 2755,
      "κεφαλαιου": 2756,
      "ακρο": 2757,
      "εκπαιδευτικο": 2758,
      "συνολικη": 2759,
      "παγκοσμιου": 2760,
      "χατζη": 2761,
      "##λογια": 2762,
      "οδου": 2763,
      "ελενη": 2764,
      "οποιας": 2765,
      "πρωτ": 2766,
      "ομορφα": 2767,
      "απα": 2768,
      "βουλευτες": 2769,
      "γενικοτερα": 2770,
      "συστατικα": 2771,
      "mail": 2772,
      "ματι": 2773,
      "σελιδες": 2774,
      "εταιριας": 2775,
      "δηλωνει": 2776,
      "##πληρω": 2777,
      "πιθανοτητα": 2778,
      "##ποιη": 2779,
      "λεφτα": 2780,
      "##εσ": 2781,
      "παρεμβαση": 2782,
      "##φαν": 2783,
      "ονομαζεται": 2784,
      "αγωνων": 2785,
      "##24": 2786,
      "επιλεξτε": 2787,
      "##70": 2788,
      "πρωτου": 2789,
      "##στηκε": 2790,
      "μασ": 2791,
      "συνεχισει": 2792,
      "##εια": 2793,
      "φορεων": 2794,
      "αυτοκινητα": 2795,
      "απειλη": 2796,
      "λαθη": 2797,
      "υλικου": 2798,
      "τοπικο": 2799,
      "εσωτερικων": 2800,
      "ενδιαφεροντος": 2801,
      "χωριου": 2802,
      "##στι": 2803,
      "##25": 2804,
      "ζητα": 2805,
      "θελεις": 2806,
      "ρυθμο": 2807,
      "σο": 2808,
      "newlinenewline": 2809,
      "υποβολης": 2810,
      "##ρυ": 2811,
      "επισημο": 2812,
      "49": 2813,
      "##ικ": 2814,
      "ακολουθουν": 2815,
      "πολιτεια": 2816,
      "εκατονταδες": 2817,
      "συνελευση": 2818,
      "αρωμα": 2819,
      "δεσμευ": 2820,
      "##ισμο": 2821,
      "εγγραφο": 2822,
      "##στικο": 2823,
      "ψηλα": 2824,
      "ονειρο": 2825,
      "υπογραφη": 2826,
      "##ζι": 2827,
      "##son": 2828,
      "δεη": 2829,
      "σετ": 2830,
      "μελετης": 2831,
      "βρε": 2832,
      "##βαλ": 2833,
      "χο": 2834,
      "συνορα": 2835,
      "αλληλεγγυης": 2836,
      "τουτου": 2837,
      "##εων": 2838,
      "πονο": 2839,
      "λαδι": 2840,
      "κερδη": 2841,
      "βλ": 2842,
      "ιδιοτητες": 2843,
      "τοσα": 2844,
      "δημοτικη": 2845,
      "ηγεσια": 2846,
      "υδρο": 2847,
      "##οπουλου": 2848,
      "##σκ": 2849,
      "εστιατοριο": 2850,
      "δινοντας": 2851,
      "επαγγελματικη": 2852,
      "επανασταση": 2853,
      "ειρηνη": 2854,
      "αυτοκινητων": 2855,
      "παπουτσια": 2856,
      "ισχυρο": 2857,
      "##γαν": 2858,
      "κοινωνικα": 2859,
      "φυλλα": 2860,
      "προβλεπεται": 2861,
      "εκτ": 2862,
      "κρατων": 2863,
      "##ir": 2864,
      "δυσκολιες": 2865,
      "κοινοβουλιο": 2866,
      "φα": 2867,
      "αγγλικα": 2868,
      "internet": 2869,
      "αποκατασταση": 2870,
      "##15": 2871,
      "δεκαετιες": 2872,
      "προσφυγες": 2873,
      "πωληση": 2874,
      "βρισκοταν": 2875,
      "επομενες": 2876,
      "απασχολησης": 2877,
      "πολιτη": 2878,
      "επιστημονικη": 2879,
      "συμμετειχαν": 2880,
      "ταυτοτητα": 2881,
      "εισοδημα": 2882,
      "ζευγαρι": 2883,
      "βεβαιως": 2884,
      "##ton": 2885,
      "κτλ": 2886,
      "##καρ": 2887,
      "καταφερει": 2888,
      "ξυλο": 2889,
      "ξερεις": 2890,
      "##μπε": 2891,
      "πολ": 2892,
      "συνεργατες": 2893,
      "οριζεται": 2894,
      "αλα": 2895,
      "βερ": 2896,
      "κανεναν": 2897,
      "στομα": 2898,
      "λυκειου": 2899,
      "λογου": 2900,
      "οργανισμος": 2901,
      "ευρυ": 2902,
      "ζα": 2903,
      "##ou": 2904,
      "85": 2905,
      "προχωρησει": 2906,
      "##τροπ": 2907,
      "αερο": 2908,
      "αγκαλια": 2909,
      "post": 2910,
      "πρωτης": 2911,
      "ρου": 2912,
      "δωσουν": 2913,
      "##εως": 2914,
      "ar": 2915,
      "παροντος": 2916,
      "##λογι": 2917,
      "προυποθεση": 2918,
      "##φυλα": 2919,
      "##γου": 2920,
      "95": 2921,
      "απαντησε": 2922,
      "πειρα": 2923,
      "##sa": 2924,
      "μαμα": 2925,
      "βουλης": 2926,
      "##διο": 2927,
      "##ψει": 2928,
      "εντονο": 2929,
      "ειπα": 2930,
      "ιδιωτικο": 2931,
      "δειξει": 2932,
      "μηνων": 2933,
      "99": 2934,
      "ρευμα": 2935,
      "κατοικων": 2936,
      "κιλα": 2937,
      "προβληματων": 2938,
      "βρηκε": 2939,
      "ιδιου": 2940,
      "γενικου": 2941,
      "μανα": 2942,
      "αθλητες": 2943,
      "υψηλο": 2944,
      "επιπτωσεις": 2945,
      "εκθεσης": 2946,
      "γαρ": 2947,
      "##me": 2948,
      "ιατρικη": 2949,
      "2002": 2950,
      "αμυνας": 2951,
      "ηττα": 2952,
      "στρατου": 2953,
      "αντε": 2954,
      "##ξαν": 2955,
      "εξοδο": 2956,
      "χρηστος": 2957,
      "παραμενουν": 2958,
      "φερνει": 2959,
      "δημοσιευση": 2960,
      "συμπτωματα": 2961,
      "προτεινει": 2962,
      "επενδυσεις": 2963,
      "οικο": 2964,
      "my": 2965,
      "λεγοντας": 2966,
      "##ml": 2967,
      "##ation": 2968,
      "σημειωθει": 2969,
      "εντονα": 2970,
      "αντιστοιχο": 2971,
      "##βερ": 2972,
      "ειδων": 2973,
      "αποκτησει": 2974,
      "προμηθεια": 2975,
      "σταθερη": 2976,
      "ερντογαν": 2977,
      "φυσικου": 2978,
      "##χωρη": 2979,
      "##μυ": 2980,
      "τουτο": 2981,
      "##σκε": 2982,
      "παλαιο": 2983,
      "βρετανια": 2984,
      "ανοιχτο": 2985,
      "αε": 2986,
      "ανθρωπινο": 2987,
      "εξουσιας": 2988,
      "χιλιομετρα": 2989,
      "κυριου": 2990,
      "##μον": 2991,
      "χρηματοδοτηση": 2992,
      "βρεθηκαν": 2993,
      "δεκαδες": 2994,
      "χαρι": 2995,
      "φυσικης": 2996,
      "καρκινο": 2997,
      "##ησουν": 2998,
      "στρατο": 2999,
      "##θι": 3000,
      "##ιτ": 3001,
      "##πουλος": 3002,
      "con": 3003,
      "##ba": 3004,
      "επιτελους": 3005,
      "##περ": 3006,
      "συνταγη": 3007,
      "συμφωνιας": 3008,
      "αναδειξη": 3009,
      "εκταση": 3010,
      "κανονικα": 3011,
      "##ιστα": 3012,
      "hotel": 3013,
      "προεδρε": 3014,
      "νωριτερα": 3015,
      "αεροδρομιο": 3016,
      "εμεινε": 3017,
      "ανθρωπινη": 3018,
      "οκτω": 3019,
      "σεναριο": 3020,
      "επιθυμια": 3021,
      "αντιπαλο": 3022,
      "##14": 3023,
      "##τερες": 3024,
      "υλικων": 3025,
      "παρουσιασε": 3026,
      "##80": 3027,
      "τοπικης": 3028,
      "σχετικες": 3029,
      "γλυκο": 3030,
      "καμ": 3031,
      "επιπεδου": 3032,
      "##κομ": 3033,
      "μηνυματα": 3034,
      "μενει": 3035,
      "##χρονη": 3036,
      "##li": 3037,
      "mar": 3038,
      "γραμμα": 3039,
      "##γκο": 3040,
      "αναλυτικα": 3041,
      "mo": 3042,
      "φοβο": 3043,
      "##ad": 3044,
      "δικαιοσυνης": 3045,
      "γευμα": 3046,
      "αιματος": 3047,
      "an": 3048,
      "διαταξη": 3049,
      "προετοιμασια": 3050,
      "##ri": 3051,
      "##οτητα": 3052,
      "σημερινο": 3053,
      "##ωμενο": 3054,
      "ακριβεια": 3055,
      "##ψα": 3056,
      "##νγκ": 3057,
      "##λαν": 3058,
      "ντι": 3059,
      "##λεγ": 3060,
      "δικαιοσυνη": 3061,
      "##στερ": 3062,
      "κορυφαια": 3063,
      "οδηγησε": 3064,
      "ch": 3065,
      "γυναικεια": 3066,
      "τιμων": 3067,
      "σκα": 3068,
      "ισχυος": 3069,
      "δη": 3070,
      "##ριες": 3071,
      "βασιζεται": 3072,
      "κερδισε": 3073,
      "φπα": 3074,
      "52": 3075,
      "εργαστηριο": 3076,
      "47": 3077,
      "εκπτωση": 3078,
      "ποδοσφαιρο": 3079,
      "##ig": 3080,
      "αφησει": 3081,
      "ερευνητες": 3082,
      "φροντιδα": 3083,
      "συγκεκριμενες": 3084,
      "μελι": 3085,
      "πινακας": 3086,
      "γρ": 3087,
      "καλει": 3088,
      "πορων": 3089,
      "ξερουμε": 3090,
      "περισσοτερους": 3091,
      "as": 3092,
      "κερδισει": 3093,
      "##προ": 3094,
      "περιλαμβανονται": 3095,
      "ακολουθησε": 3096,
      "αστυνομιας": 3097,
      "##90": 3098,
      "περιεχομενου": 3099,
      "εμφαση": 3100,
      "φαρμακα": 3101,
      "ημι": 3102,
      "νωρις": 3103,
      "##ησαν": 3104,
      "ελληνα": 3105,
      "##ca": 3106,
      "θετικα": 3107,
      "μεγαλυτερες": 3108,
      "##19": 3109,
      "ενδο": 3110,
      "θερμο": 3111,
      "σειρας": 3112,
      "βασιλης": 3113,
      "παιζουν": 3114,
      "δυτικη": 3115,
      "τακτικη": 3116,
      "##στων": 3117,
      "##16": 3118,
      "ανδρων": 3119,
      "αχ": 3120,
      "οξυ": 3121,
      "αγαπημενο": 3122,
      "προσφατη": 3123,
      "δισκο": 3124,
      "σαρ": 3125,
      "φιλη": 3126,
      "##χωρι": 3127,
      "εδειξε": 3128,
      "ενταξη": 3129,
      "##11": 3130,
      "μικροτερο": 3131,
      "προτυπο": 3132,
      "ευκαιριες": 3133,
      "##πουλου": 3134,
      "αναφορικα": 3135,
      "σταθερο": 3136,
      "μηχανη": 3137,
      "##λιου": 3138,
      "τροφιμα": 3139,
      "ανεξαρτητα": 3140,
      "παροχης": 3141,
      "windows": 3142,
      "δαπανες": 3143,
      "υπευθυνη": 3144,
      "συνεχη": 3145,
      "##πλα": 3146,
      "αρχεια": 3147,
      "250": 3148,
      "##ραν": 3149,
      "οφειλει": 3150,
      "μεγιστη": 3151,
      "θετικο": 3152,
      "βιβλιοθηκη": 3153,
      "εκεινα": 3154,
      "παρακολουθηση": 3155,
      "##χι": 3156,
      "αναφερθηκε": 3157,
      "αρχων": 3158,
      "ασφαλισης": 3159,
      "##ζετε": 3160,
      "λαμβανει": 3161,
      "ακ": 3162,
      "γρηγορη": 3163,
      "media": 3164,
      "αξιες": 3165,
      "καλυπτει": 3166,
      "αναγνωριση": 3167,
      "##ωμενη": 3168,
      "διοικητικο": 3169,
      "εκεινοι": 3170,
      "συρια": 3171,
      "συνταξη": 3172,
      "pa": 3173,
      "new": 3174,
      "μηχανικων": 3175,
      "χριστο": 3176,
      "##υλα": 3177,
      "συντηρηση": 3178,
      "προσθεσε": 3179,
      "εχασε": 3180,
      "μιλωντας": 3181,
      "##ts": 3182,
      "γε": 3183,
      "περιμενει": 3184,
      "τρε": 3185,
      "οποιον": 3186,
      "διαμονη": 3187,
      "δινεται": 3188,
      "μωρο": 3189,
      "##σκι": 3190,
      "τιτλος": 3191,
      "εδρας": 3192,
      "γου": 3193,
      "σταματησει": 3194,
      "γεωργιου": 3195,
      "αλλον": 3196,
      "δεδομενου": 3197,
      "##ιδη": 3198,
      "οραμα": 3199,
      "καταστασης": 3200,
      "μπασκετ": 3201,
      "ποιες": 3202,
      "##ψι": 3203,
      "σχεδιασμου": 3204,
      "##ποιει": 3205,
      "πασχα": 3206,
      "παρολο": 3207,
      "αντιμετωπιζει": 3208,
      "τελει": 3209,
      "παρισι": 3210,
      "##ματων": 3211,
      "συνεβη": 3212,
      "ευχαριστη": 3213,
      "more": 3214,
      "##ισμος": 3215,
      "προβλεπει": 3216,
      "##ιδου": 3217,
      "##go": 3218,
      "διαρκειας": 3219,
      "##ant": 3220,
      "ηρακλειου": 3221,
      "##μαρ": 3222,
      "πας": 3223,
      "βε": 3224,
      "επεσε": 3225,
      "δημιουργουν": 3226,
      "ba": 3227,
      "θυσια": 3228,
      "ισπανια": 3229,
      "ερμηνευ": 3230,
      "επιδραση": 3231,
      "κινδυνος": 3232,
      "πελατη": 3233,
      "##θεν": 3234,
      "man": 3235,
      "##ty": 3236,
      "βραδια": 3237,
      "ανοιγει": 3238,
      "διεθνης": 3239,
      "δρομος": 3240,
      "##ol": 3241,
      "ακρη": 3242,
      "am": 3243,
      "μοναδων": 3244,
      "δρα": 3245,
      "χρησιμοποιηθει": 3246,
      "μπανιο": 3247,
      "ομορφια": 3248,
      "καμερα": 3249,
      "προσπαθουν": 3250,
      "πηραν": 3251,
      "κολ": 3252,
      "παναγιωτης": 3253,
      "##νοντας": 3254,
      "κρεβατι": 3255,
      "σπιτιου": 3256,
      "ενεργο": 3257,
      "παι": 3258,
      "περιλαμβανουν": 3259,
      "ξαφνικα": 3260,
      "ιδιες": 3261,
      "ολοκληρωθει": 3262,
      "##ογλου": 3263,
      "αντιδρασεις": 3264,
      "οργανων": 3265,
      "120": 3266,
      "οντως": 3267,
      "πρακτικες": 3268,
      "##ψηφι": 3269,
      "κωδικο": 3270,
      "εδωσαν": 3271,
      "δολαρια": 3272,
      "δυναμικο": 3273,
      "περνα": 3274,
      "##18": 3275,
      "σχεδιασμος": 3276,
      "##ut": 3277,
      "πχ": 3278,
      "κινδυνου": 3279,
      "εγγραφα": 3280,
      "δντ": 3281,
      "##ντερ": 3282,
      "διπλο": 3283,
      "ισχυρη": 3284,
      "ολυμπιακος": 3285,
      "συλλογο": 3286,
      "καριερα": 3287,
      "##di": 3288,
      "γαμου": 3289,
      "παρκο": 3290,
      "##ηθηκε": 3291,
      "ζουμε": 3292,
      "σπουδες": 3293,
      "all": 3294,
      "ηλεκτρονικα": 3295,
      "54": 3296,
      "##τζι": 3297,
      "πιθανον": 3298,
      "βοηθησουν": 3299,
      "##ina": 3300,
      "ματ": 3301,
      "##be": 3302,
      "cm": 3303,
      "υποστηριξης": 3304,
      "οφελη": 3305,
      "##τητες": 3306,
      "προτυπα": 3307,
      "πολιτισμο": 3308,
      "##κερ": 3309,
      "νικο": 3310,
      "##νονται": 3311,
      "σταδιακα": 3312,
      "##ινε": 3313,
      "τοπικες": 3314,
      "##la": 3315,
      "##νικη": 3316,
      "##do": 3317,
      "φυλλο": 3318,
      "χειμωνα": 3319,
      "αρχισαν": 3320,
      "se": 3321,
      "επιθυμουν": 3322,
      "##μπο": 3323,
      "εφε": 3324,
      "συζητησεις": 3325,
      "##τζ": 3326,
      "κατοχη": 3327,
      "πλατη": 3328,
      "##στικη": 3329,
      "it": 3330,
      "κυκλοφοριας": 3331,
      "μουσικο": 3332,
      "παιξει": 3333,
      "δραστηριοτητων": 3334,
      "go": 3335,
      "πελατων": 3336,
      "##ομενη": 3337,
      "κοριτσια": 3338,
      "τοπος": 3339,
      "##ga": 3340,
      "πρωτευουσα": 3341,
      "εξωτερικη": 3342,
      "ζητησει": 3343,
      "##που": 3344,
      "συμβολη": 3345,
      "δημιουργιας": 3346,
      "##τελ": 3347,
      "οσων": 3348,
      "ειδικων": 3349,
      "περιοδος": 3350,
      "εταιρειων": 3351,
      "##πραγματοποιειται": 3352,
      "##χρονο": 3353,
      "ελευθερο": 3354,
      "ενδειξη": 3355,
      "διαμερισμα": 3356,
      "600": 3357,
      "##δρομ": 3358,
      "φιλοσοφια": 3359,
      "ζεστο": 3360,
      "ταμεια": 3361,
      "##ετα": 3362,
      "γκρι": 3363,
      "πλε": 3364,
      "ανοιξε": 3365,
      "μεσων": 3366,
      "μεταναστες": 3367,
      "##κοι": 3368,
      "##σες": 3369,
      "συγκροτημα": 3370,
      "ενδεχομενο": 3371,
      "##ειο": 3372,
      "υπευθυνος": 3373,
      "https": 3374,
      "καναμε": 3375,
      "εξαλλου": 3376,
      "ολυμπιακο": 3377,
      "βλεπουν": 3378,
      "πεσει": 3379,
      "αποτελεσματικη": 3380,
      "βαρυ": 3381,
      "51": 3382,
      "κον": 3383,
      "δηθεν": 3384,
      "συνολικο": 3385,
      "mm": 3386,
      "μεθοδο": 3387,
      "μπλοκ": 3388,
      "οδηγουν": 3389,
      "αναβαθμιση": 3390,
      "ιωαννινων": 3391,
      "εξε": 3392,
      "da": 3393,
      "δημιουργησε": 3394,
      "πληροφορικης": 3395,
      "πλουσιο": 3396,
      "μαι": 3397,
      "γενια": 3398,
      "##σθει": 3399,
      "διδασκαλια": 3400,
      "παιρνουν": 3401,
      "64": 3402,
      "καποιους": 3403,
      "επομενα": 3404,
      "σταυρο": 3405,
      "βρουν": 3406,
      "θεια": 3407,
      "##κυ": 3408,
      "γνωστος": 3409,
      "αγωγη": 3410,
      "γλυκα": 3411,
      "προοπτικη": 3412,
      "κοιτα": 3413,
      "##ψη": 3414,
      "##στου": 3415,
      "εκεινους": 3416,
      "δημιουργηθηκε": 3417,
      "δρομου": 3418,
      "67": 3419,
      "αλατι": 3420,
      "ερωτα": 3421,
      "εκδηλωσης": 3422,
      "κλα": 3423,
      "προορισμο": 3424,
      "υφασμα": 3425,
      "##τοι": 3426,
      "οφελος": 3427,
      "ελπιζω": 3428,
      "φυγει": 3429,
      "κοριτσι": 3430,
      "ανοιξει": 3431,
      "εφυγε": 3432,
      "φορο": 3433,
      "ερμηνεια": 3434,
      "##σεν": 3435,
      "##φυ": 3436,
      "γραψει": 3437,
      "τροποποιηση": 3438,
      "γιος": 3439,
      "αλλαγης": 3440,
      "##μπι": 3441,
      "γεματο": 3442,
      "καταλαβει": 3443,
      "πολεμος": 3444,
      "##σλ": 3445,
      "##ποι": 3446,
      "##ss": 3447,
      "απολυτο": 3448,
      "χαρτη": 3449,
      "θεματων": 3450,
      "παπανδρεου": 3451,
      "δεχεται": 3452,
      "θες": 3453,
      "οτιδηποτε": 3454,
      "αποστολης": 3455,
      "προσωπων": 3456,
      "##ξω": 3457,
      "προερχονται": 3458,
      "προκληση": 3459,
      "ma": 3460,
      "πυρ": 3461,
      "σχολιο": 3462,
      "ζημια": 3463,
      "συμμετειχε": 3464,
      "αναφερουν": 3465,
      "##δος": 3466,
      "##τερων": 3467,
      "θερμα": 3468,
      "εντυπωση": 3469,
      "ομο": 3470,
      "εκαστοτε": 3471,
      "vi": 3472,
      "##am": 3473,
      "πακετο": 3474,
      "πατρα": 3475,
      "γραμματεια": 3476,
      "στερ": 3477,
      "διαμορφωση": 3478,
      "θυμαμαι": 3479,
      "##ριων": 3480,
      "##γωγ": 3481,
      "εξωτερικου": 3482,
      "εμπορικο": 3483,
      "αξιοποιηση": 3484,
      "αντιμετωπισει": 3485,
      "##17": 3486,
      "53": 3487,
      "##ψουν": 3488,
      "##ard": 3489,
      "καθηγητη": 3490,
      "εξαιρεση": 3491,
      "αγωγης": 3492,
      "ληξη": 3493,
      "βιομηχανια": 3494,
      "up": 3495,
      "ανατολικη": 3496,
      "αντιληψη": 3497,
      "τοιχο": 3498,
      "κοστους": 3499,
      "ζωων": 3500,
      "δερματος": 3501,
      "εκδηλωσεων": 3502,
      "κλαδο": 3503,
      "##ιδες": 3504,
      "##κατα": 3505,
      "αγχος": 3506,
      "προσωπικων": 3507,
      "βορειο": 3508,
      "ανοιχτη": 3509,
      "##χου": 3510,
      "σχετιζονται": 3511,
      "δεκαετιας": 3512,
      "56": 3513,
      "##αρα": 3514,
      "58": 3515,
      "##υπο": 3516,
      "##δικο": 3517,
      "ισχυουν": 3518,
      "επιστημη": 3519,
      "##lo": 3520,
      "γυρο": 3521,
      "πεντα": 3522,
      "κινηματος": 3523,
      "επιτευξη": 3524,
      "συνδεεται": 3525,
      "##νικο": 3526,
      "παιδεια": 3527,
      "##ωσε": 3528,
      "πολιτικου": 3529,
      "κεφαλαια": 3530,
      "εξοπλισμου": 3531,
      "ετησια": 3532,
      "##ner": 3533,
      "πρωθυπουργου": 3534,
      "καθημερινοτητα": 3535,
      "##λογη": 3536,
      "##ni": 3537,
      "ξερουν": 3538,
      "διοικητικου": 3539,
      "τσα": 3540,
      "προκαλεσε": 3541,
      "φερουν": 3542,
      "συνο": 3543,
      "##κω": 3544,
      "προσβασης": 3545,
      "δικτυα": 3546,
      "πρακτικα": 3547,
      "αναγκων": 3548,
      "οπλα": 3549,
      "σεβασμο": 3550,
      "##ρευ": 3551,
      "αγροτικης": 3552,
      "you": 3553,
      "##ent": 3554,
      "##σμου": 3555,
      "ii": 3556,
      "περιεχουν": 3557,
      "θυματα": 3558,
      "βολτα": 3559,
      "εξαρταται": 3560,
      "αντικατασταση": 3561,
      "1999": 3562,
      "πεθανε": 3563,
      "##ee": 3564,
      "ηπειρου": 3565,
      "κλειστο": 3566,
      "χριστος": 3567,
      "γινοταν": 3568,
      "δεις": 3569,
      "##ρκ": 3570,
      "αρκετο": 3571,
      "εμπιστοσυνη": 3572,
      "##υμ": 3573,
      "ερωτηματα": 3574,
      "συναυλια": 3575,
      "art": 3576,
      "γαμο": 3577,
      "μεγαλυτερα": 3578,
      "εξοπλισμο": 3579,
      "μοντελα": 3580,
      "##στης": 3581,
      "αδυναμια": 3582,
      "##λερ": 3583,
      "γιωργο": 3584,
      "τεχνικων": 3585,
      "γενικος": 3586,
      "ικανοποιηση": 3587,
      "##cm": 3588,
      "##si": 3589,
      "##σκο": 3590,
      "##λιο": 3591,
      "εκφραση": 3592,
      "αρμοδια": 3593,
      "ικανο": 3594,
      "παρεχουν": 3595,
      "κανα": 3596,
      "##τρι": 3597,
      "σουπερ": 3598,
      "επιθυμει": 3599,
      "δο": 3600,
      "γιου": 3601,
      "εγγυηση": 3602,
      "ac": 3603,
      "προκαλουν": 3604,
      "##ατε": 3605,
      "μυστικο": 3606,
      "σκια": 3607,
      "αναφορες": 3608,
      "ντο": 3609,
      "ζαχαρη": 3610,
      "##βια": 3611,
      "μπορεσει": 3612,
      "we": 3613,
      "φορμα": 3614,
      "διασταση": 3615,
      "##ll": 3616,
      "αποφασεων": 3617,
      "εικοσι": 3618,
      "μεταφραση": 3619,
      "κακη": 3620,
      "χρονικη": 3621,
      "##τιθεται": 3622,
      "lo": 3623,
      "γνωστα": 3624,
      "ενδεχεται": 3625,
      "dr": 3626,
      "ομοσπονδια": 3627,
      "χορο": 3628,
      "πρωθυπουργο": 3629,
      "σημαια": 3630,
      "σημασιας": 3631,
      "κενο": 3632,
      "περυσι": 3633,
      "παιχνιδιου": 3634,
      "##λαντ": 3635,
      "στοιχημα": 3636,
      "ουρανο": 3637,
      "φαντασια": 3638,
      "ιδρυση": 3639,
      "χαμηλο": 3640,
      "τιμης": 3641,
      "εσοδων": 3642,
      "αντιθετο": 3643,
      "τοπιο": 3644,
      "οχηματα": 3645,
      "αισθημα": 3646,
      "##τουμε": 3647,
      "greece": 3648,
      "θεωρουν": 3649,
      "παγκοσμιως": 3650,
      "##13": 3651,
      "##ωθηκε": 3652,
      "φι": 3653,
      "cd": 3654,
      "υπαλληλων": 3655,
      "κλεισει": 3656,
      "ολοκληρωθηκε": 3657,
      "ταιριαζει": 3658,
      "αντρες": 3659,
      "##ak": 3660,
      "πνευματικη": 3661,
      "βασιλειο": 3662,
      "αριστερο": 3663,
      "βιας": 3664,
      "##σις": 3665,
      "ηχο": 3666,
      "παραμεινει": 3667,
      "λαικη": 3668,
      "εκπληξη": 3669,
      "pe": 3670,
      "sp": 3671,
      "διοργανωνει": 3672,
      "μενου": 3673,
      "κωνσταντινου": 3674,
      "χορηγηση": 3675,
      "γερμανιας": 3676,
      "αρεσε": 3677,
      "κωδικος": 3678,
      "ορων": 3679,
      "bo": 3680,
      "##ωρο": 3681,
      "χρημα": 3682,
      "υγρο": 3683,
      "ευτυχως": 3684,
      "συμμετεχοντες": 3685,
      "##ωρη": 3686,
      "συνα": 3687,
      "αλλοτε": 3688,
      "##θεραπεια": 3689,
      "ha": 3690,
      "μεγιστο": 3691,
      "προφιλ": 3692,
      "περιμενουμε": 3693,
      "εισοδηματος": 3694,
      "ιωαννη": 3695,
      "59": 3696,
      "παιδικη": 3697,
      "διευθυντη": 3698,
      "##δας": 3699,
      "2020": 3700,
      "συζυγος": 3701,
      "προληψη": 3702,
      "greek": 3703,
      "πετρελαιου": 3704,
      "αξιοθεατα": 3705,
      "ποιοι": 3706,
      "επεισοδιο": 3707,
      "συσκευασια": 3708,
      "ψωμι": 3709,
      "παρουσιαζουν": 3710,
      "επιλεξει": 3711,
      "ογκο": 3712,
      "κινησης": 3713,
      "##ηλ": 3714,
      "συγχρονο": 3715,
      "εβαλε": 3716,
      "φυσης": 3717,
      "αιγαιο": 3718,
      "σοβαρη": 3719,
      "##επι": 3720,
      "τσε": 3721,
      "συνειδηση": 3722,
      "παραθυρο": 3723,
      "αναγκαια": 3724,
      "##ποιηθει": 3725,
      "μικρου": 3726,
      "κατανοηση": 3727,
      "ακολουθησει": 3728,
      "ακουσει": 3729,
      "γραμματεας": 3730,
      "εμπειριες": 3731,
      "χρυση": 3732,
      "παρομοια": 3733,
      "σκοπους": 3734,
      "μαθει": 3735,
      "##35": 3736,
      "αγαπης": 3737,
      "μιλαει": 3738,
      "αυτοματα": 3739,
      "δουν": 3740,
      "αννα": 3741,
      "##mo": 3742,
      "απουσια": 3743,
      "##τικος": 3744,
      "μπηκε": 3745,
      "βγαλει": 3746,
      "li": 3747,
      "τετρα": 3748,
      "αντισταση": 3749,
      "##λογιας": 3750,
      "πηγα": 3751,
      "παθος": 3752,
      "##sh": 3753,
      "##κους": 3754,
      "φρουτα": 3755,
      "ενδεχομενως": 3756,
      "##σσα": 3757,
      "οργανο": 3758,
      "ημεριδα": 3759,
      "βαλ": 3760,
      "κοινοβουλιου": 3761,
      "χρηστης": 3762,
      "γεωργια": 3763,
      "τρα": 3764,
      "τοπικα": 3765,
      "αποδειξη": 3766,
      "υποδομων": 3767,
      "αεπ": 3768,
      "κλειδι": 3769,
      "παω": 3770,
      "δωρα": 3771,
      "##φρα": 3772,
      "##ουλα": 3773,
      "πλευρες": 3774,
      "φιλος": 3775,
      "βλεπεις": 3776,
      "αδειας": 3777,
      "προτεραιοτητα": 3778,
      "##πια": 3779,
      "##παρ": 3780,
      "λειτουργιες": 3781,
      "συμβουλες": 3782,
      "57": 3783,
      "αντιστοιχη": 3784,
      "μπαινει": 3785,
      "δημιουργηθει": 3786,
      "ιδανικη": 3787,
      "επιστημων": 3788,
      "ανελαβε": 3789,
      "##ian": 3790,
      "αποκτηση": 3791,
      "κοινωνικου": 3792,
      "λαβετε": 3793,
      "εκεινες": 3794,
      "##pe": 3795,
      "ιστοσελιδας": 3796,
      "##ρον": 3797,
      "##βαν": 3798,
      "##σατε": 3799,
      "ασκησεις": 3800,
      "βγαινει": 3801,
      "καθαρη": 3802,
      "γονεων": 3803,
      "ραντεβου": 3804,
      "αποτελεσει": 3805,
      "γραφειου": 3806,
      "##νετε": 3807,
      "σκληρη": 3808,
      "επιθεσεις": 3809,
      "##ουσι": 3810,
      "ανατολη": 3811,
      "εμποριου": 3812,
      "πιστευει": 3813,
      "##φε": 3814,
      "τοις": 3815,
      "λονδινο": 3816,
      "ηλιου": 3817,
      "μνημονιο": 3818,
      "πληθυσμο": 3819,
      "##χθει": 3820,
      "αξονα": 3821,
      "φραση": 3822,
      "κυκλοφορησε": 3823,
      "ιατρικης": 3824,
      "ασια": 3825,
      "##ha": 3826,
      "βασιλια": 3827,
      "επεξεργασιας": 3828,
      "##ka": 3829,
      "επο": 3830,
      "σαφως": 3831,
      "ρολος": 3832,
      "##τσο": 3833,
      "ιστορικα": 3834,
      "##τηριο": 3835,
      "ξενων": 3836,
      "αρη": 3837,
      "χαμηλη": 3838,
      "τραπεζων": 3839,
      "ασκησης": 3840,
      "κυμα": 3841,
      "τουρκικη": 3842,
      "χωρισ": 3843,
      "μεθοδος": 3844,
      "84": 3845,
      "##σπ": 3846,
      "ροζ": 3847,
      "προδιαγραφες": 3848,
      "σταυρος": 3849,
      "ad": 3850,
      "##ιστες": 3851,
      "καταθεση": 3852,
      "αναφορας": 3853,
      "ιδιοτητα": 3854,
      "συγγραφεα": 3855,
      "αλεξανδρος": 3856,
      "συνεχιζεται": 3857,
      "προσφυγων": 3858,
      "δοθηκε": 3859,
      "φουρνο": 3860,
      "ετικετες": 3861,
      "μειγμα": 3862,
      "ειπαν": 3863,
      "υποψηφιος": 3864,
      "μηδεν": 3865,
      "##ερα": 3866,
      "apple": 3867,
      "ιραν": 3868,
      "διαδικτυου": 3869,
      "απεργια": 3870,
      "δαπανη": 3871,
      "εντυπωσιακο": 3872,
      "νι": 3873,
      "##οντα": 3874,
      "tv": 3875,
      "νικολαου": 3876,
      "διακοπη": 3877,
      "##mg": 3878,
      "##ξια": 3879,
      "αθλητισμου": 3880,
      "εμποριο": 3881,
      "φιλε": 3882,
      "##ρικα": 3883,
      "πωλησεις": 3884,
      "μεγα": 3885,
      "νατο": 3886,
      "περναει": 3887,
      "αεριου": 3888,
      "επαγγελματικο": 3889,
      "πνευματικο": 3890,
      "##μβ": 3891,
      "led": 3892,
      "wi": 3893,
      "κρυο": 3894,
      "he": 3895,
      "##ωσαν": 3896,
      "αριθμου": 3897,
      "βαθυ": 3898,
      "δραστηριοτητας": 3899,
      "δωδεκα": 3900,
      "ευθυνης": 3901,
      "μυθιστορημα": 3902,
      "##ies": 3903,
      "ko": 3904,
      "κουμπι": 3905,
      "πανελληνιο": 3906,
      "72": 3907,
      "##ντη": 3908,
      "##σιας": 3909,
      "παραγει": 3910,
      "αττικη": 3911,
      "συζυγο": 3912,
      "αλμπουμ": 3913,
      "or": 3914,
      "επικινδυνο": 3915,
      "περασμα": 3916,
      "ανεση": 3917,
      "επενδυση": 3918,
      "πιστευουν": 3919,
      "δεκ": 3920,
      "προσθηκη": 3921,
      "θρακης": 3922,
      "πραξης": 3923,
      "so": 3924,
      "παγκοσμιας": 3925,
      "αναλαμβανει": 3926,
      "πειραιως": 3927,
      "βλεπετε": 3928,
      "διακοσμηση": 3929,
      "αντιμετωπιζουν": 3930,
      "πληρ": 3931,
      "εστειλε": 3932,
      "συμπερασμα": 3933,
      "μπολ": 3934,
      "δανεια": 3935,
      "ψη": 3936,
      "προσφορας": 3937,
      "##age": 3938,
      "φε": 3939,
      "κυβερνησεις": 3940,
      "μακ": 3941,
      "βουλγαρια": 3942,
      "##no": 3943,
      "μαυρη": 3944,
      "##σκοπ": 3945,
      "οργανωσεις": 3946,
      "ανατροπη": 3947,
      "##στικα": 3948,
      "λιγη": 3949,
      "##ναι": 3950,
      "σπανια": 3951,
      "εγκλημα": 3952,
      "πινακες": 3953,
      "πανηγυρι": 3954,
      "παιδικο": 3955,
      "κοπο": 3956,
      "##ψαν": 3957,
      "ιδρυθηκε": 3958,
      "περιοχων": 3959,
      "πληρης": 3960,
      "πετρα": 3961,
      "μονα": 3962,
      "κλινικη": 3963,
      "οπλο": 3964,
      "διαθεσιμα": 3965,
      "##28": 3966,
      "κτιρια": 3967,
      "ερτ": 3968,
      "ταξι": 3969,
      "ουσιες": 3970,
      "ευθυνες": 3971,
      "κατερινα": 3972,
      "one": 3973,
      "νοσοκομειου": 3974,
      "πλακα": 3975,
      "αξεσουαρ": 3976,
      "επεμβαση": 3977,
      "συμβολο": 3978,
      "λαμβανουν": 3979,
      "1997": 3980,
      "σχολειων": 3981,
      "ενωπιον": 3982,
      "ιο": 3983,
      "οχηματων": 3984,
      "μνημης": 3985,
      "γραμματα": 3986,
      "περιγραφει": 3987,
      "ιδρυματος": 3988,
      "ελε": 3989,
      "πλοια": 3990,
      "du": 3991,
      "with": 3992,
      "##ci": 3993,
      "σκι": 3994,
      "καλος": 3995,
      "ποινη": 3996,
      "φαινομενα": 3997,
      "##ιον": 3998,
      "γκα": 3999,
      "εξακολουθει": 4000,
      "κηπο": 4001,
      "σημειωνεται": 4002,
      "ιι": 4003,
      "κυρ": 4004,
      "##ζο": 4005,
      "##ρχ": 4006,
      "##σιες": 4007,
      "στιγμης": 4008,
      "εκλογων": 4009,
      "μαν": 4010,
      "##99": 4011,
      "ταινιας": 4012,
      "πατηστε": 4013,
      "##σμενη": 4014,
      "th": 4015,
      "ποδοσφαιρου": 4016,
      "##land": 4017,
      "προσευχη": 4018,
      "δημοτικης": 4019,
      "περιουσια": 4020,
      "πατ": 4021,
      "διευθυνσης": 4022,
      "##bo": 4023,
      "συνεχισε": 4024,
      "κινειται": 4025,
      "γιωργου": 4026,
      "800": 4027,
      "ολοκληρωμενη": 4028,
      "83": 4029,
      "ποσου": 4030,
      "##22": 4031,
      "##λιν": 4032,
      "αμερικανικη": 4033,
      "ενδιαφερει": 4034,
      "ανοιξη": 4035,
      "ρεκορ": 4036,
      "απελευθερωση": 4037,
      "μεταφορων": 4038,
      "ενοτητας": 4039,
      "παρεμβασεις": 4040,
      "εξισου": 4041,
      "καθυστερηση": 4042,
      "περισσοτερη": 4043,
      "ανοιγμα": 4044,
      "παραδοσιακο": 4045,
      "##σμενο": 4046,
      "##παν": 4047,
      "διαγνωση": 4048,
      "αρχηγος": 4049,
      "σταθερα": 4050,
      "αριστη": 4051,
      "##ang": 4052,
      "ονειρα": 4053,
      "ξερετε": 4054,
      "##απο": 4055,
      "ευχαριστουμε": 4056,
      "ποντους": 4057,
      "ακινητων": 4058,
      "παραταση": 4059,
      "βρεις": 4060,
      "ειδαμε": 4061,
      "##ιμο": 4062,
      "παραγγελια": 4063,
      "ευρωπαικες": 4064,
      "##21": 4065,
      "##λλα": 4066,
      "ασθενων": 4067,
      "μικρων": 4068,
      "προθεση": 4069,
      "ψυχο": 4070,
      "απαντησει": 4071,
      "##νικα": 4072,
      "προσπαθησε": 4073,
      "κλαδου": 4074,
      "##ησεις": 4075,
      "ελευθεριας": 4076,
      "επενδυσεων": 4077,
      "επιστρεψει": 4078,
      "τελετη": 4079,
      "καθενα": 4080,
      "σκου": 4081,
      "λιμνη": 4082,
      "##im": 4083,
      "##γγ": 4084,
      "ηλεκτρο": 4085,
      "προυπολογισμο": 4086,
      "στενο": 4087,
      "απευθυνεται": 4088,
      "ηρακλειο": 4089,
      "καταλληλα": 4090,
      "##ξουν": 4091,
      "επιλεξετε": 4092,
      "χρησιμοποιησετε": 4093,
      "γεφυρα": 4094,
      "σεμιναριο": 4095,
      "68": 4096,
      "φυτα": 4097,
      "σταθμος": 4098,
      "περιστατικο": 4099,
      "οχημα": 4100,
      "ανελ": 4101,
      "##45": 4102,
      "καλλι": 4103,
      "απαντα": 4104,
      "αμυνα": 4105,
      "black": 4106,
      "ομιλος": 4107,
      "γρηγορο": 4108,
      "καταπολεμηση": 4109,
      "διχως": 4110,
      "εισοδου": 4111,
      "ρωσιας": 4112,
      "φιλια": 4113,
      "σεπτεμβριο": 4114,
      "τεταρτο": 4115,
      "αλκοολ": 4116,
      "##un": 4117,
      "πλην": 4118,
      "##ατ": 4119,
      "τμηματων": 4120,
      "hotels": 4121,
      "σπουδαιο": 4122,
      "βγηκε": 4123,
      "χειρο": 4124,
      "ιδιωτικου": 4125,
      "παραστασεις": 4126,
      "προπονητης": 4127,
      "μακαρι": 4128,
      "κατανομη": 4129,
      "δοσεις": 4130,
      "εκφραζει": 4131,
      "##36": 4132,
      "ευρυτερη": 4133,
      "##γρ": 4134,
      "##ai": 4135,
      "ανθρωπινων": 4136,
      "γενικες": 4137,
      "μικροτερη": 4138,
      "φυλακη": 4139,
      "##23": 4140,
      "αγιων": 4141,
      "euro": 4142,
      "συνταξεις": 4143,
      "κρατηση": 4144,
      "προηγουμενες": 4145,
      "ποδι": 4146,
      "τονιζει": 4147,
      "σαββατοκυριακο": 4148,
      "ηθοποιος": 4149,
      "χρησιμο": 4150,
      "αποδοχη": 4151,
      "ξεκιναει": 4152,
      "οδηγο": 4153,
      "ανδρεας": 4154,
      "περιμενουν": 4155,
      "##βαλλ": 4156,
      "##75": 4157,
      "##βου": 4158,
      "οροι": 4159,
      "σημειωνει": 4160,
      "περασμενη": 4161,
      "συνιστα": 4162,
      "αριστερας": 4163,
      "##ko": 4164,
      "##εξ": 4165,
      "φυσικων": 4166,
      "νομους": 4167,
      "βασεις": 4168,
      "μονιμη": 4169,
      "οψη": 4170,
      "απασχοληση": 4171,
      "χαν": 4172,
      "υποστηριζουν": 4173,
      "##πες": 4174,
      "νομικο": 4175,
      "πισινα": 4176,
      "καπ": 4177,
      "ιστο": 4178,
      "απαραιτητες": 4179,
      "διαρκως": 4180,
      "αρχαιο": 4181,
      "θεσης": 4182,
      "βαζει": 4183,
      "φυ": 4184,
      "επιστρεφει": 4185,
      "παραμονη": 4186,
      "ζημιες": 4187,
      "ολυμπιακου": 4188,
      "καλλιτεχνες": 4189,
      "στηριξης": 4190,
      "προβληματος": 4191,
      "##βλεπ": 4192,
      "63": 4193,
      "εταιριες": 4194,
      "##στροφ": 4195,
      "ψυχης": 4196,
      "κανονισμου": 4197,
      "κρατα": 4198,
      "ποσοστα": 4199,
      "##ομενων": 4200,
      "##ιρ": 4201,
      "##αδα": 4202,
      "κειμενου": 4203,
      "πραγματοποιησε": 4204,
      "##και": 4205,
      "##gr": 4206,
      "χριστουγεννιατι": 4207,
      "##ιζουν": 4208,
      "αγγλια": 4209,
      "ομοσπονδιας": 4210,
      "ροη": 4211,
      "62": 4212,
      "##θηκα": 4213,
      "can": 4214,
      "free": 4215,
      "##νους": 4216,
      "ξεκινησαν": 4217,
      "πλευρας": 4218,
      "θεατρου": 4219,
      "διαφορους": 4220,
      "πεινα": 4221,
      "τελειως": 4222,
      "ελαιολαδο": 4223,
      "πραγματοποιουν": 4224,
      "τροφη": 4225,
      "twitter": 4226,
      "διαβασει": 4227,
      "μεταφερει": 4228,
      "κυπελλο": 4229,
      "συσταση": 4230,
      "θεσσαλιας": 4231,
      "πανεπιστημια": 4232,
      "διαλογο": 4233,
      "μαιο": 4234,
      "cookies": 4235,
      "ανδρεα": 4236,
      "περιθωριο": 4237,
      "πατρων": 4238,
      "δυνατα": 4239,
      "ηλεκτρονικων": 4240,
      "μιλησει": 4241,
      "##ive": 4242,
      "##ea": 4243,
      "project": 4244,
      "παραδειγματα": 4245,
      "πλατφορμα": 4246,
      "iphone": 4247,
      "##ινες": 4248,
      "παραρτημα": 4249,
      "υποψηφιων": 4250,
      "ευρωπαικων": 4251,
      "συνοδο": 4252,
      "νη": 4253,
      "81": 4254,
      "σενα": 4255,
      "λαχανικα": 4256,
      "##συρ": 4257,
      "μπορουσα": 4258,
      "ημασταν": 4259,
      "χανιων": 4260,
      "sh": 4261,
      "βλα": 4262,
      "περασμενο": 4263,
      "αναζητησης": 4264,
      "φετινη": 4265,
      "##μμ": 4266,
      "μεταναστων": 4267,
      "σαλονι": 4268,
      "##ix": 4269,
      "ιουνιο": 4270,
      "##ιλ": 4271,
      "##σχε": 4272,
      "βαζουμε": 4273,
      "στελεχων": 4274,
      "##ρουν": 4275,
      "αγροτες": 4276,
      "un": 4277,
      "ομιλο": 4278,
      "νικολαος": 4279,
      "συναντησεις": 4280,
      "συγκεντρω": 4281,
      "##σιων": 4282,
      "πολιτικοι": 4283,
      "δειγμα": 4284,
      "μετωπο": 4285,
      "1998": 4286,
      "##ment": 4287,
      "et": 4288,
      "##ποιησης": 4289,
      "ινστιτουτο": 4290,
      "ασ": 4291,
      "λαρισα": 4292,
      "αγωνια": 4293,
      "παροτι": 4294,
      "φορ": 4295,
      "πληροφορια": 4296,
      "υλη": 4297,
      "μιση": 4298,
      "συνεδριου": 4299,
      "κρεας": 4300,
      "περσι": 4301,
      "φιλων": 4302,
      "συνθηκη": 4303,
      "ψηφο": 4304,
      "##em": 4305,
      "δεσμευση": 4306,
      "gu": 4307,
      "νση": 4308,
      "μεγεθους": 4309,
      "παραδοσιακα": 4310,
      "##ργη": 4311,
      "νικου": 4312,
      "αποδοσης": 4313,
      "##ιοι": 4314,
      "συνεδρια": 4315,
      "εμφανισεις": 4316,
      "ταξιδια": 4317,
      "##ac": 4318,
      "προσληψη": 4319,
      "καταφεραν": 4320,
      "air": 4321,
      "σεξουαλικη": 4322,
      "group": 4323,
      "club": 4324,
      "##υρα": 4325,
      "ιησου": 4326,
      "##χρονου": 4327,
      "καποιου": 4328,
      "##ξο": 4329,
      "ιδιοκτητες": 4330,
      "βρισκει": 4331,
      "66": 4332,
      "σκοπια": 4333,
      "καθηγητες": 4334,
      "γεματη": 4335,
      "εκδ": 4336,
      "γκου": 4337,
      "ξεχωριστη": 4338,
      "συρ": 4339,
      "μαθηματων": 4340,
      "ανατολικης": 4341,
      "μαντ": 4342,
      "πορους": 4343,
      "παικτης": 4344,
      "##ip": 4345,
      "συμφερον": 4346,
      "βιβλιων": 4347,
      "λογισμικο": 4348,
      "ικανοτητες": 4349,
      "κουλτουρα": 4350,
      "ορθο": 4351,
      "λογικο": 4352,
      "μικρος": 4353,
      "ανθρωπινου": 4354,
      "περασαν": 4355,
      "λαρισας": 4356,
      "##αδες": 4357,
      "κυριακης": 4358,
      "##ros": 4359,
      "οποιονδηποτε": 4360,
      "##ωθουν": 4361,
      "κοντο": 4362,
      "τηλε": 4363,
      "πλαστικο": 4364,
      "εσ": 4365,
      "##χων": 4366,
      "υπνο": 4367,
      "θεματος": 4368,
      "82": 4369,
      "τουρνουα": 4370,
      "κουρ": 4371,
      "παρακαλω": 4372,
      "sc": 4373,
      "##ποιειται": 4374,
      "γερμανικη": 4375,
      "ρευματος": 4376,
      "φοιτητων": 4377,
      "##ist": 4378,
      "καλ": 4379,
      "χρηστων": 4380,
      "φρα": 4381,
      "##01": 4382,
      "98": 4383,
      "χει": 4384,
      "##πον": 4385,
      "γκι": 4386,
      "γυαλι": 4387,
      "καρδιας": 4388,
      "χρησιμοποιουμε": 4389,
      "αιτησεις": 4390,
      "##ei": 4391,
      "αφηνοντας": 4392,
      "τευχος": 4393,
      "συμπερασματα": 4394,
      "φορου": 4395,
      "##ρικο": 4396,
      "νοε": 4397,
      "θεωρουμε": 4398,
      "δοση": 4399,
      "θανατος": 4400,
      "συμβολαιο": 4401,
      "μεγαλους": 4402,
      "κοινης": 4403,
      "κει": 4404,
      "##ριας": 4405,
      "ακρα": 4406,
      "##ωσουν": 4407,
      "χειροτερο": 4408,
      "πρα": 4409,
      "πετυχει": 4410,
      "βασιλη": 4411,
      "συμβασεις": 4412,
      "##επ": 4413,
      "επαρχια": 4414,
      "μονοι": 4415,
      "ισορροπια": 4416,
      "νομιμο": 4417,
      "αλεξης": 4418,
      "προχωρησε": 4419,
      "τοπικων": 4420,
      "εξηγει": 4421,
      "ανοδο": 4422,
      "φυτο": 4423,
      "πολιτικους": 4424,
      "##27": 4425,
      "συγχρονες": 4426,
      "sport": 4427,
      "βοηθουν": 4428,
      "star": 4429,
      "##υλο": 4430,
      "οικονομικου": 4431,
      "##γραφια": 4432,
      "σιωπη": 4433,
      "##βλη": 4434,
      "ουσιαστικη": 4435,
      "ελαχιστα": 4436,
      "συγκρουση": 4437,
      "ιουλ": 4438,
      "ασφαλη": 4439,
      "ερευνων": 4440,
      "ξεχωριστο": 4441,
      "δημαρχου": 4442,
      "##ινουν": 4443,
      "μεθοδους": 4444,
      "κοπελα": 4445,
      "##ξεις": 4446,
      "61": 4447,
      "##κρατ": 4448,
      "τυρι": 4449,
      "αποφασισει": 4450,
      "σκηνοθεσια": 4451,
      "καθιστα": 4452,
      "play": 4453,
      "ex": 4454,
      "υποψηφιοι": 4455,
      "##γι": 4456,
      "ιδρυ": 4457,
      "οδηγια": 4458,
      "τουρκοι": 4459,
      "χανει": 4460,
      "καινουργιο": 4461,
      "πελοποννησου": 4462,
      "##τιμη": 4463,
      "γυ": 4464,
      "##οπ": 4465,
      "βιου": 4466,
      "εκπαιδευτικου": 4467,
      "βελ": 4468,
      "παρασκευης": 4469,
      "πειτε": 4470,
      "εισοδος": 4471,
      "ψυγειο": 4472,
      "αυξανεται": 4473,
      "θεωρουνται": 4474,
      "διαταξεων": 4475,
      "παρουσιαζεται": 4476,
      "ne": 4477,
      "βοηθαει": 4478,
      "##κοπ": 4479,
      "παρουμε": 4480,
      "πουθενα": 4481,
      "ρυθμους": 4482,
      "πραγματων": 4483,
      "διακριση": 4484,
      "σταυρου": 4485,
      "##σων": 4486,
      "ετοιμο": 4487,
      "αποτελεσματικα": 4488,
      "##vi": 4489,
      "δημιουργωντας": 4490,
      "ενιαιο": 4491,
      "off": 4492,
      "ανετα": 4493,
      "εκατο": 4494,
      "πωλησης": 4495,
      "διεθνων": 4496,
      "δημοσιες": 4497,
      "παρουσιασει": 4498,
      "σοκ": 4499,
      "στρα": 4500,
      "##τζα": 4501,
      "εικονας": 4502,
      "74": 4503,
      "αυγ": 4504,
      "υπομονη": 4505,
      "pre": 4506,
      "πολιτικος": 4507,
      "τεστ": 4508,
      "επιστημης": 4509,
      "βεβαιωση": 4510,
      "αριστο": 4511,
      "τυχαια": 4512,
      "ξενο": 4513,
      "μηκους": 4514,
      "κυκλοφορει": 4515,
      "εκδοσης": 4516,
      "αμερικης": 4517,
      "καθαρ": 4518,
      "##ιζεται": 4519,
      "πιστο": 4520,
      "σαμαρα": 4521,
      "ζησει": 4522,
      "συνεχιζουν": 4523,
      "γυναικας": 4524,
      "ra": 4525,
      "##χυ": 4526,
      "εκπροσωποι": 4527,
      "κυκλος": 4528,
      "βρω": 4529,
      "αφαιρεση": 4530,
      "νοτιο": 4531,
      "επιλυση": 4532,
      "υποθεσεις": 4533,
      "##39": 4534,
      "αποτελεσματων": 4535,
      "υπολογι": 4536,
      "αλλαξε": 4537,
      "πολιτειες": 4538,
      "πιθανοτητες": 4539,
      "δαπανων": 4540,
      "καταβολη": 4541,
      "θρησκεια": 4542,
      "ειδικοτητα": 4543,
      "γιατρος": 4544,
      "ριζες": 4545,
      "ηθελαν": 4546,
      "βαρια": 4547,
      "εγκεφαλο": 4548,
      "καρκινου": 4549,
      "##λικα": 4550,
      "συνολου": 4551,
      "εκδοχη": 4552,
      "##29": 4553,
      "παραγραφου": 4554,
      "υπε": 4555,
      "αυξημενη": 4556,
      "βασι": 4557,
      "##ωμενα": 4558,
      "αμεσο": 4559,
      "αυγουστο": 4560,
      "ασχολειται": 4561,
      "##ps": 4562,
      "χρησιμοποιησει": 4563,
      "##86": 4564,
      "ζητουν": 4565,
      "##πων": 4566,
      "σαφες": 4567,
      "1990": 4568,
      "εχ": 4569,
      "αλε": 4570,
      "πολιτης": 4571,
      "ακου": 4572,
      "αφιερω": 4573,
      "ειδικης": 4574,
      "73": 4575,
      "οσες": 4576,
      "καστρο": 4577,
      "γυμνασιο": 4578,
      "φθινοπωρο": 4579,
      "σερρων": 4580,
      "social": 4581,
      "γραφη": 4582,
      "επεισοδια": 4583,
      "παναθηναικος": 4584,
      "out": 4585,
      "μετοχων": 4586,
      "καλυψει": 4587,
      "ενταξει": 4588,
      "##σσο": 4589,
      "##νερ": 4590,
      "παραδοσης": 4591,
      "##λογος": 4592,
      "αρνητικα": 4593,
      "##λογων": 4594,
      "χριστουγεννα": 4595,
      "λαιμο": 4596,
      "καταναλωτες": 4597,
      "φαρμακο": 4598,
      "ανοιχτα": 4599,
      "ποσοτητες": 4600,
      "κοπ": 4601,
      "δρασεων": 4602,
      "θη": 4603,
      "απευθυν": 4604,
      "νομισμα": 4605,
      "αγαπημενη": 4606,
      "καλλιεργεια": 4607,
      "προπονητη": 4608,
      "εξοδου": 4609,
      "συνταγματος": 4610,
      "ψαρια": 4611,
      "δημοσιευμα": 4612,
      "88": 4613,
      "εξο": 4614,
      "κιολας": 4615,
      "ατομου": 4616,
      "γυμνασιου": 4617,
      "##ψω": 4618,
      "γραμματεα": 4619,
      "διαλυ": 4620,
      "##ity": 4621,
      "ινδια": 4622,
      "αιτησης": 4623,
      "##γω": 4624,
      "αρχιτεκτονικη": 4625,
      "##26": 4626,
      "παρακολουθει": 4627,
      "θυμα": 4628,
      "ta": 4629,
      "rock": 4630,
      "συμπληρωση": 4631,
      "επιλεγει": 4632,
      "##τους": 4633,
      "##37": 4634,
      "##υχ": 4635,
      "##ετ": 4636,
      "χαμογελο": 4637,
      "καναλι": 4638,
      "φαινονται": 4639,
      "αποτελεσματικο": 4640,
      "θεραπειας": 4641,
      "εσπα": 4642,
      "##ελα": 4643,
      "##μαι": 4644,
      "ελαιο": 4645,
      "##69": 4646,
      "##στρε": 4647,
      "κυπελλου": 4648,
      "σχολικη": 4649,
      "##38": 4650,
      "##μω": 4651,
      "προπονηση": 4652,
      "ελληνο": 4653,
      "##mp": 4654,
      "##κτον": 4655,
      "##ομενος": 4656,
      "οκτωβριο": 4657,
      "ανησυχια": 4658,
      "##σμενα": 4659,
      "αυλη": 4660,
      "υψηλου": 4661,
      "##mi": 4662,
      "αντιπροεδρος": 4663,
      "εφαρμοζεται": 4664,
      "ιαν": 4665,
      "αρχικο": 4666,
      "##σιου": 4667,
      "κων": 4668,
      "ζωντανη": 4669,
      "θετει": 4670,
      "ανεργιας": 4671,
      "επαγγελματικης": 4672,
      "180": 4673,
      "διο": 4674,
      "πατε": 4675,
      "γεω": 4676,
      "οπτικη": 4677,
      "γερ": 4678,
      "##66": 4679,
      "ουρα": 4680,
      "##λλη": 4681,
      "δομες": 4682,
      "αυστραλια": 4683,
      "φρεσκο": 4684,
      "89": 4685,
      "καταλογο": 4686,
      "επεστρεψε": 4687,
      "ηρθαν": 4688,
      "μονιμο": 4689,
      "ξεκινουν": 4690,
      "##ιερ": 4691,
      "αιωνες": 4692,
      "χε": 4693,
      "λιπος": 4694,
      "##οντες": 4695,
      "οηε": 4696,
      "##δερ": 4697,
      "86": 4698,
      "##vo": 4699,
      "##ler": 4700,
      "ταυτοτητας": 4701,
      "##λοι": 4702,
      "κομματων": 4703,
      "##βαρ": 4704,
      "συμβαλλει": 4705,
      "μερικοι": 4706,
      "συνισταται": 4707,
      "ειδικου": 4708,
      "κατασκευες": 4709,
      "συνδεονται": 4710,
      "τζι": 4711,
      "επισημαινει": 4712,
      "δυσκολες": 4713,
      "ανερχεται": 4714,
      "κυτταρα": 4715,
      "ικα": 4716,
      "χρηματοοικονομι": 4717,
      "##up": 4718,
      "##ζοταν": 4719,
      "καιρους": 4720,
      "βγαζει": 4721,
      "εναλλακτικη": 4722,
      "κλεισιμο": 4723,
      "συναισθημα": 4724,
      "εκθεσεις": 4725,
      "καταληγει": 4726,
      "jo": 4727,
      "##βιο": 4728,
      "προκυπτουν": 4729,
      "συμπαν": 4730,
      "ειδηση": 4731,
      "κυριες": 4732,
      "##αιρε": 4733,
      "##πλε": 4734,
      "##ινι": 4735,
      "αυ": 4736,
      "αξιολογη": 4737,
      "σχολικο": 4738,
      "##32": 4739,
      "επηρεαζει": 4740,
      "γιατρο": 4741,
      "##τυπ": 4742,
      "προσωπικοτητα": 4743,
      "##εζ": 4744,
      "τελειωσει": 4745,
      "συνδρομη": 4746,
      "##ct": 4747,
      "παρετε": 4748,
      "71": 4749,
      "κανονικη": 4750,
      "πρακτορειο": 4751,
      "μοναδας": 4752,
      "νομικη": 4753,
      "pi": 4754,
      "ηνπ": 4755,
      "ποιον": 4756,
      "##λογικη": 4757,
      "γνωριζετε": 4758,
      "γλωσσες": 4759,
      "αποφυγη": 4760,
      "##ιτη": 4761,
      "τεχνων": 4762,
      "θυμιζει": 4763,
      "πρ": 4764,
      "φασμα": 4765,
      "πετυχε": 4766,
      "τυχαιο": 4767,
      "##pi": 4768,
      "λογισμικου": 4769,
      "απαιτουνται": 4770,
      "φωτα": 4771,
      "chat": 4772,
      "αλι": 4773,
      "read": 4774,
      "υπηρξαν": 4775,
      "στρατιωτικη": 4776,
      "##τζη": 4777,
      "συνταγες": 4778,
      "1000": 4779,
      "ρεπορταζ": 4780,
      "καθηκοντα": 4781,
      "##πρα": 4782,
      "φορτ": 4783,
      "αναγκαιο": 4784,
      "##ομενα": 4785,
      "##σθ": 4786,
      "περασουν": 4787,
      "δημοσιογραφος": 4788,
      "βλεμμα": 4789,
      "##ιζε": 4790,
      "##δον": 4791,
      "βασιλειου": 4792,
      "1994": 4793,
      "##γερ": 4794,
      "παρακαλουμε": 4795,
      "καινουργια": 4796,
      "συγχρονης": 4797,
      "##lin": 4798,
      "καλυ": 4799,
      "κριτηριο": 4800,
      "καλαματας": 4801,
      "βοηθησε": 4802,
      "πιστευουμε": 4803,
      "εισ": 4804,
      "ελευθερα": 4805,
      "92": 4806,
      "ιδρυματα": 4807,
      "αντωνης": 4808,
      "ιδιοκτησιας": 4809,
      "βουνο": 4810,
      "αλεξ": 4811,
      "ca": 4812,
      "νομοθεσιας": 4813,
      "χαρακτηριζεται": 4814,
      "επικεντρο": 4815,
      "##χαν": 4816,
      "επιστημονικο": 4817,
      "μαζευ": 4818,
      "##ke": 4819,
      "ka": 4820,
      "ηλεκτρονικης": 4821,
      "αυξανει": 4822,
      "##ιντ": 4823,
      "φο": 4824,
      "εφαρμογων": 4825,
      "1996": 4826,
      "νοσοκομεια": 4827,
      "αραγε": 4828,
      "ηθικη": 4829,
      "##ιτς": 4830,
      "παναγιας": 4831,
      "αδυνατο": 4832,
      "επιμελεια": 4833,
      "δεξι": 4834,
      "##κλα": 4835,
      "##der": 4836,
      "##ow": 4837,
      "στρατηγικης": 4838,
      "##χω": 4839,
      "σαλ": 4840,
      "##φου": 4841,
      "βρουμε": 4842,
      "τασεις": 4843,
      "min": 4844,
      "##στικων": 4845,
      "##ωτη": 4846,
      "δυτικα": 4847,
      "ταχυδρομειου": 4848,
      "παραλιες": 4849,
      "καταρτιση": 4850,
      "##ap": 4851,
      "αληθινο": 4852,
      "##ber": 4853,
      "ισα": 4854,
      "76": 4855,
      "περιορισ": 4856,
      "πληρωμη": 4857,
      "ουκ": 4858,
      "##συν": 4859,
      "μεσου": 4860,
      "διδασκαλιας": 4861,
      "τεχνολογιες": 4862,
      "νικες": 4863,
      "αναγνωση": 4864,
      "καλεσε": 4865,
      "87": 4866,
      "βρα": 4867,
      "##μπερ": 4868,
      "νομικα": 4869,
      "αυγα": 4870,
      "πηρα": 4871,
      "##υπ": 4872,
      "καταγραφη": 4873,
      "μπι": 4874,
      "ελαχιστη": 4875,
      "κατοικια": 4876,
      "ποιηση": 4877,
      "παρουσιαζονται": 4878,
      "κυπρος": 4879,
      "εργαστηρια": 4880,
      "δημων": 4881,
      "##ντια": 4882,
      "##0€": 4883,
      "λαβουν": 4884,
      "αναλυ": 4885,
      "νομοσχεδιο": 4886,
      "συναρτηση": 4887,
      "πηγαινει": 4888,
      "##δευ": 4889,
      "υπολογιζεται": 4890,
      "εισιτηρια": 4891,
      "επιτρεπουν": 4892,
      "##ολα": 4893,
      "δωσουμε": 4894,
      "λυκειο": 4895,
      "συντομο": 4896,
      "ενοψει": 4897,
      "πορτες": 4898,
      "γνωριζω": 4899,
      "κολπο": 4900,
      "τεχνικα": 4901,
      "συμφεροντων": 4902,
      "ανδρας": 4903,
      "γκο": 4904,
      "ενε": 4905,
      "αλεξη": 4906,
      "πορτοκαλι": 4907,
      "φου": 4908,
      "στενα": 4909,
      "δικαιολογητικα": 4910,
      "διαιτα": 4911,
      "αισθητικη": 4912,
      "σοβαρες": 4913,
      "κοινα": 4914,
      "πιθανοτατα": 4915,
      "##ice": 4916,
      "κυκλου": 4917,
      "τελευταιων": 4918,
      "αιτησεων": 4919,
      "ζωο": 4920,
      "αρκετοι": 4921,
      "##bu": 4922,
      "ανευ": 4923,
      "##γορ": 4924,
      "μπορουσαμε": 4925,
      "κτιριου": 4926,
      "τσο": 4927,
      "##za": 4928,
      "γελ": 4929,
      "αποσπασμα": 4930,
      "μιχαλης": 4931,
      "εστιατορια": 4932,
      "δημητριος": 4933,
      "γνωσης": 4934,
      "σκε": 4935,
      "χαμηλα": 4936,
      "πεδια": 4937,
      "##ργι": 4938,
      "πλαισιου": 4939,
      "##ny": 4940,
      "οκτ": 4941,
      "αναγκης": 4942,
      "κρατικο": 4943,
      "πλεονεκτημα": 4944,
      "μπουν": 4945,
      "##ακ": 4946,
      "αλληλεγγυη": 4947,
      "πεφτει": 4948,
      "κουρα": 4949,
      "##ιλα": 4950,
      "##αγ": 4951,
      "τρελα": 4952,
      "εξαμηνο": 4953,
      "αθλητικο": 4954,
      "κρατησει": 4955,
      "##μης": 4956,
      "σκηνικο": 4957,
      "##ωσης": 4958,
      "τεχνικο": 4959,
      "##γραμ": 4960,
      "##ημενο": 4961,
      "77": 4962,
      "αγαπημενα": 4963,
      "συμβασεων": 4964,
      "βυζια": 4965,
      "προκλησεις": 4966,
      "##po": 4967,
      "διαθεσιμοτητα": 4968,
      "συντηρησης": 4969,
      "ευχομαι": 4970,
      "δικαστικη": 4971,
      "προθεσμια": 4972,
      "##46": 4973,
      "γαλλιας": 4974,
      "σχολες": 4975,
      "ημερολογιο": 4976,
      "καταγραφει": 4977,
      "σκεψης": 4978,
      "θαλασσας": 4979,
      "##one": 4980,
      "λειτουργησει": 4981,
      "συνθηκων": 4982,
      "πολλη": 4983,
      "περιφερειακο": 4984,
      "1995": 4985,
      "##τσε": 4986,
      "##σας": 4987,
      "κοιλια": 4988,
      "καταρτισης": 4989,
      "ηλια": 4990,
      "διαγωνισμος": 4991,
      "σχετιζεται": 4992,
      "##ωρ": 4993,
      "ανεργια": 4994,
      "ho": 4995,
      "δημοψηφισμα": 4996,
      "υπολοιπες": 4997,
      "ειρηνης": 4998,
      "φαρμακων": 4999,
      "μιχαηλ": 5000,
      "σιγουρο": 5001,
      "εκπαιδευτικους": 5002,
      "##βρα": 5003,
      "ιουλιο": 5004,
      "##νιου": 5005,
      "μουσειου": 5006,
      "εγκαινια": 5007,
      "δημ": 5008,
      "θεραπευ": 5009,
      "##κτα": 5010,
      "##ell": 5011,
      "πληρωμης": 5012,
      "##ωδη": 5013,
      "εθνικα": 5014,
      "εννεα": 5015,
      "πρακτικο": 5016,
      "εκμεταλλευ": 5017,
      "σκληρα": 5018,
      "συγγενεις": 5019,
      "χι": 5020,
      "δεικτη": 5021,
      "εκμεταλλευση": 5022,
      "##ek": 5023,
      "##λον": 5024,
      "##διων": 5025,
      "per": 5026,
      "δημητριου": 5027,
      "ιδιους": 5028,
      "αγρο": 5029,
      "εκλεισε": 5030,
      "##ill": 5031,
      "ελληνικος": 5032,
      "διεξαγωγη": 5033,
      "οργανισμους": 5034,
      "ενηλικες": 5035,
      "προσφεροντας": 5036,
      "##καλυπτ": 5037,
      "τετοιου": 5038,
      "προστατευ": 5039,
      "προκηρυξη": 5040,
      "περιφερειακης": 5041,
      "περιπετεια": 5042,
      "##δικη": 5043,
      "μιλα": 5044,
      "εμπορικη": 5045,
      "top": 5046,
      "79": 5047,
      "##ταρα": 5048,
      "ελεγα": 5049,
      "po": 5050,
      "τεθει": 5051,
      "αρχι": 5052,
      "προσωπικες": 5053,
      "αποθηκευ": 5054,
      "ζωντανο": 5055,
      "##our": 5056,
      "δυναμικου": 5057,
      "ναρκωτικων": 5058,
      "πνευματος": 5059,
      "σφ": 5060,
      "ιστοτοπο": 5061,
      "78": 5062,
      "θελαμε": 5063,
      "mac": 5064,
      "υλοποιησης": 5065,
      "τρο": 5066,
      "προσφερουμε": 5067,
      "χρησιμοποιειτε": 5068,
      "ασκ": 5069,
      "κερκυρα": 5070,
      "world": 5071,
      "παε": 5072,
      "700": 5073,
      "σκοτ": 5074,
      "χυμο": 5075,
      "##33": 5076,
      "φακελο": 5077,
      "διεξαχθει": 5078,
      "μπραβο": 5079,
      "ντου": 5080,
      "παρων": 5081,
      "##ana": 5082,
      "εργοστασιο": 5083,
      "παρεχεται": 5084,
      "επαναληψη": 5085,
      "αγορι": 5086,
      "χρονιας": 5087,
      "παλ": 5088,
      "##ιτιδα": 5089,
      "παραγραφο": 5090,
      "ακρως": 5091,
      "##les": 5092,
      "κινδυνους": 5093,
      "##υμε": 5094,
      "αει": 5095,
      "συχνοτητα": 5096,
      "επαγγελμα": 5097,
      "πολιτισμος": 5098,
      "##49": 5099,
      "##τινα": 5100,
      "προε": 5101,
      "συνεληφθη": 5102,
      "μαρτιο": 5103,
      "ανακοινωσεις": 5104,
      "αναμετρηση": 5105,
      "πιθανη": 5106,
      "ενδιαφεροντα": 5107,
      "πολυτιμο": 5108,
      "παρολα": 5109,
      "αξιοπιστια": 5110,
      "λαικο": 5111,
      "δεδομενο": 5112,
      "##τητος": 5113,
      "##τομ": 5114,
      "κοζανης": 5115,
      "προοδο": 5116,
      "υφος": 5117,
      "εθνος": 5118,
      "design": 5119,
      "εμπ": 5120,
      "πληκτρο": 5121,
      "##ite": 5122,
      "παρουσας": 5123,
      "ξενοδοχειων": 5124,
      "##νησι": 5125,
      "λουλουδια": 5126,
      "αμφι": 5127,
      "μπερ": 5128,
      "δικιο": 5129,
      "δραμα": 5130,
      "παιδικα": 5131,
      "συνοδευ": 5132,
      "γνωστες": 5133,
      "παγκο": 5134,
      "ψηφιακη": 5135,
      "ανδρα": 5136,
      "εγκαταστασης": 5137,
      "δυναται": 5138,
      "κανονα": 5139,
      "δανειων": 5140,
      "εγκαταστασεων": 5141,
      "διακο": 5142,
      "97": 5143,
      "συναδελφους": 5144,
      "παυλος": 5145,
      "service": 5146,
      "υπολογιστων": 5147,
      "ανθ": 5148,
      "νικολα": 5149,
      "##τικοτητα": 5150,
      "οριζει": 5151,
      "##ποιουνται": 5152,
      "υπεροχα": 5153,
      "##68": 5154,
      "δηλωσει": 5155,
      "αφρικη": 5156,
      "πολιτιστικο": 5157,
      "αρης": 5158,
      "χρηματοδοτησης": 5159,
      "##ζου": 5160,
      "λευκα": 5161,
      "τεσσαρων": 5162,
      "ηρωες": 5163,
      "συνοδου": 5164,
      "γενιας": 5165,
      "παρακολουθησης": 5166,
      "συλλογων": 5167,
      "απαιτουν": 5168,
      "δημαρχο": 5169,
      "##γραφο": 5170,
      "##ιστων": 5171,
      "##ight": 5172,
      "ακουγεται": 5173,
      "εισηγηση": 5174,
      "ροδο": 5175,
      "τραγωδια": 5176,
      "##est": 5177,
      "ξα": 5178,
      "προσθετουμε": 5179,
      "αποπειρα": 5180,
      "ιερας": 5181,
      "επιτευχθει": 5182,
      "##τσου": 5183,
      "συμπ": 5184,
      "fa": 5185,
      "καρτες": 5186,
      "ασπρο": 5187,
      "φωτος": 5188,
      "φερεται": 5189,
      "διαδικασιων": 5190,
      "εμφανιστηκε": 5191,
      "##φορ": 5192,
      "κανε": 5193,
      "συνολικου": 5194,
      "προβλεψεις": 5195,
      "μηχανηματα": 5196,
      "χρονικα": 5197,
      "πρωτων": 5198,
      "βιταμινη": 5199,
      "μικρους": 5200,
      "##ζητ": 5201,
      "περιφερειακη": 5202,
      "ρη": 5203,
      "αποτελεσε": 5204,
      "##ρακι": 5205,
      "##ηθηκαν": 5206,
      "σεμιναρια": 5207,
      "στρατος": 5208,
      "##ron": 5209,
      "ουτως": 5210,
      "##σχ": 5211,
      "συμβαινουν": 5212,
      "96": 5213,
      "αποχωρηση": 5214,
      "σχεδιων": 5215,
      "πιατα": 5216,
      "μελους": 5217,
      "αποκτα": 5218,
      "δοκιμα": 5219,
      "κουτι": 5220,
      "##res": 5221,
      "σωτηρια": 5222,
      "ασφαλως": 5223,
      "##ηκε": 5224,
      "κουβα": 5225,
      "##79": 5226,
      "θεσει": 5227,
      "πρωτοι": 5228,
      "βρισκομαστε": 5229,
      "καλυτερος": 5230,
      "κρο": 5231,
      "##op": 5232,
      "νεκρο": 5233,
      "ευαισθησια": 5234,
      "##ζον": 5235,
      "συνδυασμος": 5236,
      "πληρωσει": 5237,
      "δικτυων": 5238,
      "μαθετε": 5239,
      "σκαφος": 5240,
      "υψηλα": 5241,
      "ηχου": 5242,
      "εξετασ": 5243,
      "εκατομμυριων": 5244,
      "κατεληξε": 5245,
      "συγχαρητηρια": 5246,
      "##ran": 5247,
      "εργαζεται": 5248,
      "κινηματογραφου": 5249,
      "##om": 5250,
      "προκυψει": 5251,
      "απωλειες": 5252,
      "##κλει": 5253,
      "περιουσιας": 5254,
      "##υλι": 5255,
      "συνδεσης": 5256,
      "##he": 5257,
      "##χια": 5258,
      "προσε": 5259,
      "μαρινα": 5260,
      "μυστικα": 5261,
      "σεπ": 5262,
      "επιβολη": 5263,
      "τρεχει": 5264,
      "κυριαρχια": 5265,
      "προοπτικες": 5266,
      "φαν": 5267,
      "##ινων": 5268,
      "θεατρικη": 5269,
      "υορκη": 5270,
      "καλουνται": 5271,
      "##55": 5272,
      "δουλειες": 5273,
      "ιανουαριο": 5274,
      "μακρυ": 5275,
      "##ωσεις": 5276,
      "αγρια": 5277,
      "##σμων": 5278,
      "παραγγελιας": 5279,
      "επαγγελματικα": 5280,
      "υποστει": 5281,
      "##διαπραγματευσεις": 5282,
      "ισ": 5283,
      "χιλ": 5284,
      "article": 5285,
      "συνοδευεται": 5286,
      "ιππο": 5287,
      "υποχρεωτικη": 5288,
      "πατρι": 5289,
      "microsoft": 5290,
      "αποκαλυψη": 5291,
      "τερμα": 5292,
      "##67": 5293,
      "διαγραφη": 5294,
      "πιστοποιητικο": 5295,
      "κυριοι": 5296,
      "su": 5297,
      "##τισμου": 5298,
      "##κτο": 5299,
      "βου": 5300,
      "##tion": 5301,
      "απαγορευση": 5302,
      "##πω": 5303,
      "δευτερος": 5304,
      "ειδικοι": 5305,
      "τριτων": 5306,
      "εκρηξη": 5307,
      "εθνικων": 5308,
      "σωματειο": 5309,
      "μαυρα": 5310,
      "##tic": 5311,
      "ζεστη": 5312,
      "μαλλιων": 5313,
      "στοχων": 5314,
      "ελαφρυ": 5315,
      "ελευθερος": 5316,
      "αυγη": 5317,
      "94": 5318,
      "φτιαξει": 5319,
      "κομ": 5320,
      "συνδεσμο": 5321,
      "##μοι": 5322,
      "σημαδια": 5323,
      "επιμερους": 5324,
      "ιδιας": 5325,
      "φορεας": 5326,
      "κατεχει": 5327,
      "δυσκολια": 5328,
      "παναγια": 5329,
      "πρωτοτυπο": 5330,
      "alpha": 5331,
      "εφημεριδες": 5332,
      "this": 5333,
      "1992": 5334,
      "##95": 5335,
      "##31": 5336,
      "συνδεσμου": 5337,
      "πρωτοβουλιες": 5338,
      "μονοπατι": 5339,
      "βασιλιας": 5340,
      "μελετων": 5341,
      "θεληση": 5342,
      "ερθουν": 5343,
      "ιντερνετ": 5344,
      "παροχες": 5345,
      "##ρισ": 5346,
      "##34": 5347,
      "βρυξελλες": 5348,
      "κυριολεκτικα": 5349,
      "συλληψη": 5350,
      "##γκου": 5351,
      "μαθησης": 5352,
      "ηγετες": 5353,
      "αβ": 5354,
      "##ιωτης": 5355,
      "δεντρο": 5356,
      "##88": 5357,
      "εφημεριδας": 5358,
      "αντιστοιχει": 5359,
      "##ομενο": 5360,
      "αντιπολιτευσης": 5361,
      "##στος": 5362,
      "εξετασεων": 5363,
      "συμπεριφορας": 5364,
      "χασετε": 5365,
      "##στικες": 5366,
      "open": 5367,
      "##σσ": 5368,
      "αξιοπρεπεια": 5369,
      "αποκαλυψε": 5370,
      "##γιο": 5371,
      "εκπαιδευ": 5372,
      "χωροι": 5373,
      "τριμηνο": 5374,
      "ατομικο": 5375,
      "πετα": 5376,
      "προηγουμενα": 5377,
      "αστυνομικους": 5378,
      "##ph": 5379,
      "τελ": 5380,
      "pc": 5381,
      "μεταφρασ": 5382,
      "πολι": 5383,
      "πρεμιερα": 5384,
      "αναγνωρι": 5385,
      "μαθηματικα": 5386,
      "δεικτης": 5387,
      "inter": 5388,
      "παραμυθι": 5389,
      "ντυ": 5390,
      "δεξιοτητες": 5391,
      "αριστερη": 5392,
      "μερκελ": 5393,
      "αμερικανικο": 5394,
      "##ster": 5395,
      "μηχανες": 5396,
      "υπαλληλοι": 5397,
      "##ag": 5398,
      "##ταρ": 5399,
      "διασφαλιση": 5400,
      "μοναστηρι": 5401,
      "υψηλες": 5402,
      "power": 5403,
      "παρω": 5404,
      "ευτυχια": 5405,
      "##65": 5406,
      "##gen": 5407,
      "αντιγραφο": 5408,
      "##πτ": 5409,
      "##09": 5410,
      "##γον": 5411,
      "##nd": 5412,
      "ετησιο": 5413,
      "##βελ": 5414,
      "ακτη": 5415,
      "international": 5416,
      "ip": 5417,
      "γαμ": 5418,
      "γερο": 5419,
      "βουνα": 5420,
      "προεκυψε": 5421,
      "παντων": 5422,
      "εργαζονται": 5423,
      "αφηνουμε": 5424,
      "##υσαν": 5425,
      "εκπαιδευτικη": 5426,
      "κινητηρα": 5427,
      "εφαρμο": 5428,
      "##ντες": 5429,
      "μητροπολιτης": 5430,
      "αφενος": 5431,
      "δυση": 5432,
      "δευτερολεπτα": 5433,
      "μανια": 5434,
      "φυλακες": 5435,
      "ηθικο": 5436,
      "ph": 5437,
      "υπα": 5438,
      "παραχωρηση": 5439,
      "##θια": 5440,
      "##ισα": 5441,
      "##βρ": 5442,
      "εγγραφων": 5443,
      "αρνητικη": 5444,
      "καταστηματος": 5445,
      "1993": 5446,
      "red": 5447,
      "δειπνο": 5448,
      "μονης": 5449,
      "##per": 5450,
      "93": 5451,
      "εφη": 5452,
      "##48": 5453,
      "κατακτηση": 5454,
      "φανηκε": 5455,
      "##dy": 5456,
      "δογμα": 5457,
      "πλανο": 5458,
      "πληρες": 5459,
      "cy": 5460,
      "ευρηματα": 5461,
      "νοεμβριο": 5462,
      "μετρια": 5463,
      "##va": 5464,
      "πανα": 5465,
      "τελειωσε": 5466,
      "hd": 5467,
      "βορειου": 5468,
      "γραμμης": 5469,
      "##ηθη": 5470,
      "λαμβανοντας": 5471,
      "##λεια": 5472,
      "κοτοπουλο": 5473,
      "εξεφρασε": 5474,
      "δασος": 5475,
      "τριαντα": 5476,
      "##ah": 5477,
      "##τρεπ": 5478,
      "μπουρ": 5479,
      "##θυμ": 5480,
      "κλιμακα": 5481,
      "##bi": 5482,
      "σταδια": 5483,
      "δυναμης": 5484,
      "##net": 5485,
      "προσεκτικα": 5486,
      "##ec": 5487,
      "ver": 5488,
      "τηλεφωνα": 5489,
      "μεγαρο": 5490,
      "λεωφορειο": 5491,
      "αντοχη": 5492,
      "shop": 5493,
      "αγα": 5494,
      "line": 5495,
      "##γονο": 5496,
      "ανθρωπινης": 5497,
      "επαιξε": 5498,
      "##78": 5499,
      "αποφασιζει": 5500,
      "εδαφους": 5501,
      "οπωσδηποτε": 5502,
      "χρεωση": 5503,
      "usb": 5504,
      "επιπλα": 5505,
      "διαρκει": 5506,
      "βλαβη": 5507,
      "δουλευει": 5508,
      "ηεο": 5509,
      "##ιζ": 5510,
      "εκπροσωπους": 5511,
      "βουλευτη": 5512,
      "αλεξανδρου": 5513,
      "##che": 5514,
      "εθνικες": 5515,
      "##64": 5516,
      "μπαταρια": 5517,
      "##oc": 5518,
      "αστυνομικοι": 5519,
      "παραγοντας": 5520,
      "επιστημονικα": 5521,
      "επαφες": 5522,
      "##πλη": 5523,
      "επικρατειας": 5524,
      "##hi": 5525,
      "##χειρι": 5526,
      "αποτυχια": 5527,
      "ση": 5528,
      "ηλιος": 5529,
      "περιμενε": 5530,
      "συναλλαγες": 5531,
      "##ινει": 5532,
      "επιδοσεις": 5533,
      "λιπαρα": 5534,
      "athens": 5535,
      "##and": 5536,
      "αμμο": 5537,
      "αρνηση": 5538,
      "ειδησεων": 5539,
      "μαθηματος": 5540,
      "επιτυχιες": 5541,
      "φωνες": 5542,
      "##ance": 5543,
      "δεκεμβριο": 5544,
      "μειωνει": 5545,
      "εσενα": 5546,
      "ανεβα": 5547,
      "ηλεκτρικο": 5548,
      "υπαρξης": 5549,
      "στηθος": 5550,
      "αναλογη": 5551,
      "info": 5552,
      "##ini": 5553,
      "ποδηλατο": 5554,
      "σωματικη": 5555,
      "ονοματος": 5556,
      "##tra": 5557,
      "βολου": 5558,
      "βρηκα": 5559,
      "απρ": 5560,
      "ag": 5561,
      "αντιθετως": 5562,
      "ανθρωπινα": 5563,
      "ξεχωριστα": 5564,
      "δημους": 5565,
      "συγκροτηση": 5566,
      "τοπους": 5567,
      "1974": 5568,
      "##85": 5569,
      "γερα": 5570,
      "##ιζονται": 5571,
      "σηκω": 5572,
      "##44": 5573,
      "##νθ": 5574,
      "γαλλικη": 5575,
      "απεχει": 5576,
      "σταθμου": 5577,
      "προστατευει": 5578,
      "αρνητικο": 5579,
      "ενοικιαζομενα": 5580,
      "σημειωση": 5581,
      "βαθμολογια": 5582,
      "στοχοι": 5583,
      "ακολουθη": 5584,
      "επιδερμιδα": 5585,
      "νοσου": 5586,
      "##τηρα": 5587,
      "δολοφονια": 5588,
      "ανατολικα": 5589,
      "επικρατει": 5590,
      "διαβασα": 5591,
      "θαλασσια": 5592,
      "πεις": 5593,
      "##τηρια": 5594,
      "μεγαλοι": 5595,
      "##φω": 5596,
      "ενημερωνει": 5597,
      "μασαζ": 5598,
      "εσωτερικα": 5599,
      "##λεξ": 5600,
      "κλεινει": 5601,
      "δυτικο": 5602,
      "##ure": 5603,
      "μνημονια": 5604,
      "τσαι": 5605,
      "##era": 5606,
      "χαρακτηρες": 5607,
      "καλε": 5608,
      "##γρα": 5609,
      "τεχνικης": 5610,
      "εναρξης": 5611,
      "εξοπλισμος": 5612,
      "youtube": 5613,
      "χωμα": 5614,
      "ps": 5615,
      "λογοτεχνια": 5616,
      "bi": 5617,
      "##02": 5618,
      "παναθηναικο": 5619,
      "κασ": 5620,
      "παραιτηση": 5621,
      "αγωνιστικης": 5622,
      "αυτοματο": 5623,
      "##72": 5624,
      "##ιμ": 5625,
      "αξιων": 5626,
      "στρατιωτες": 5627,
      "ταμειου": 5628,
      "##εχ": 5629,
      "πετρος": 5630,
      "επιχειρηματικη": 5631,
      "σκοταδι": 5632,
      "τροφες": 5633,
      "μηχανισμο": 5634,
      "δημοτικων": 5635,
      "προκριση": 5636,
      "αρχιζουν": 5637,
      "δημιουργειται": 5638,
      "επελεξε": 5639,
      "δημητρα": 5640,
      "##κτ": 5641,
      "τομεας": 5642,
      "##υργ": 5643,
      "λογοι": 5644,
      "αγορων": 5645,
      "αλλ": 5646,
      "android": 5647,
      "εντυπωσιακη": 5648,
      "χρυσα": 5649,
      "##08": 5650,
      "##αρια": 5651,
      "##ινου": 5652,
      "διαταραχες": 5653,
      "καθαρισμου": 5654,
      "διατιθεται": 5655,
      "τιμωρ": 5656,
      "max": 5657,
      "ιταλιας": 5658,
      "δημοσιευ": 5659,
      "##lt": 5660,
      "εποχες": 5661,
      "ιδιοκτησια": 5662,
      "υποδομες": 5663,
      "αποκαλυπτει": 5664,
      "ανταλλαγη": 5665,
      "χιλιαδων": 5666,
      "λειτουργικο": 5667,
      "αρχ": 5668,
      "καναδα": 5669,
      "##ομενοι": 5670,
      "δεντρα": 5671,
      "στειλει": 5672,
      "##tor": 5673,
      "ταξεις": 5674,
      "μεσογειο": 5675,
      "περιλαμβανεται": 5676,
      "##ino": 5677,
      "συνεργα": 5678,
      "προτου": 5679,
      "##ρατ": 5680,
      "ποταμι": 5681,
      "##ινης": 5682,
      "##76": 5683,
      "εδ": 5684,
      "##πολη": 5685,
      "##οσ": 5686,
      "παπαδοπουλος": 5687,
      "##ate": 5688,
      "γιατροι": 5689,
      "##ue": 5690,
      "ενδιαφερουσα": 5691,
      "ωρων": 5692,
      "##able": 5693,
      "διαλογου": 5694,
      "λειπει": 5695,
      "προελευσης": 5696,
      "mi": 5697,
      "θερμανσης": 5698,
      "θερμανση": 5699,
      "##τελεσματικοτητα": 5700,
      "ολοενα": 5701,
      "pdf": 5702,
      "εξεδωσε": 5703,
      "χειρουργικη": 5704,
      "πρωτον": 5705,
      "γελα": 5706,
      "##σμος": 5707,
      "μιλουν": 5708,
      "αγνωστο": 5709,
      "##ετο": 5710,
      "συναλλαγων": 5711,
      "ρομα": 5712,
      "ακολουθωντας": 5713,
      "σωληνα": 5714,
      "αυτοδιοικησης": 5715,
      "ελεγαν": 5716,
      "##γες": 5717,
      "μενουν": 5718,
      "απριλιο": 5719,
      "##05": 5720,
      "καλειται": 5721,
      "sta": 5722,
      "παγ": 5723,
      "νευρο": 5724,
      "lu": 5725,
      "περιεργο": 5726,
      "ιστορικου": 5727,
      "ενημερωσει": 5728,
      "στηλη": 5729,
      "##νδρ": 5730,
      "##news": 5731,
      "ενεργοποιηση": 5732,
      "συμμετασχει": 5733,
      "em": 5734,
      "##ιδας": 5735,
      "ελεγχει": 5736,
      "συντομη": 5737,
      "μητερας": 5738,
      "αληθινη": 5739,
      "##οκ": 5740,
      "ρυθμισ": 5741,
      "διανομη": 5742,
      "πασ": 5743,
      "ενδειξεις": 5744,
      "περιοδους": 5745,
      "εκτελεσης": 5746,
      "##σημα": 5747,
      "ολοκληρωμενο": 5748,
      "##ολογια": 5749,
      "ανανεωση": 5750,
      "οργη": 5751,
      "χρηματοπιστωτικ": 5752,
      "show": 5753,
      "μμ": 5754,
      "san": 5755,
      "καινοτομια": 5756,
      "επικαιροτητα": 5757,
      "##απ": 5758,
      "##ier": 5759,
      "αιτηματα": 5760,
      "δημιουργησουν": 5761,
      "συναδελφοι": 5762,
      "μορφης": 5763,
      "##61": 5764,
      "ροδου": 5765,
      "επιστροφης": 5766,
      "##ζονταν": 5767,
      "ιδιοκτητης": 5768,
      "καταναλωσης": 5769,
      "χρεη": 5770,
      "αφηστε": 5771,
      "οδηγησαν": 5772,
      "γιαγια": 5773,
      "εκπαιδευτικοι": 5774,
      "υποστηριξε": 5775,
      "γραφ": 5776,
      "αρκετη": 5777,
      "mg": 5778,
      "##εμ": 5779,
      "ανακοινωνει": 5780,
      "##74": 5781,
      "συνδυασ": 5782,
      "πιεσης": 5783,
      "ευρεια": 5784,
      "ποδοσφαιριστες": 5785,
      "μινι": 5786,
      "##θειτε": 5787,
      "σουτ": 5788,
      "εμποδια": 5789,
      "χρηματων": 5790,
      "λεπτομερεια": 5791,
      "βουληση": 5792,
      "ετοιμη": 5793,
      "αναζητουν": 5794,
      "συγκ": 5795,
      "ψυχολογια": 5796,
      "αναλογο": 5797,
      "##τζης": 5798,
      "οικογενειακο": 5799,
      "##47": 5800,
      "προβλεψη": 5801,
      "##ong": 5802,
      "αλλαζουν": 5803,
      "σταθεροτητα": 5804,
      "καποιων": 5805,
      "##71": 5806,
      "ρωμη": 5807,
      "υπαλληλους": 5808,
      "αντρα": 5809,
      "μαχ": 5810,
      "ακολουθησαν": 5811,
      "##υρων": 5812,
      "χανια": 5813,
      "δικαιωματος": 5814,
      "##θετη": 5815,
      "εζησε": 5816,
      "μαρα": 5817,
      "συνταξεων": 5818,
      "βρηκαν": 5819,
      "τουρκους": 5820,
      "ημων": 5821,
      "μερια": 5822,
      "βασης": 5823,
      "##μιο": 5824,
      "sch": 5825,
      "##ισμα": 5826,
      "εγγραφης": 5827,
      "καλυπτουν": 5828,
      "κυκλοφορουν": 5829,
      "##λικο": 5830,
      "καταγωγης": 5831,
      "γαλακτος": 5832,
      "ασθενη": 5833,
      "πορτογαλια": 5834,
      "col": 5835,
      "τηρηση": 5836,
      "##γαλ": 5837,
      "##que": 5838,
      "συντροφο": 5839,
      "##νιας": 5840,
      "κατοικιας": 5841,
      "αντιπολιτευση": 5842,
      "σωματειου": 5843,
      "ιστοσελιδες": 5844,
      "ψηφοφορια": 5845,
      "business": 5846,
      "ιδιωτικη": 5847,
      "ποτο": 5848,
      "ανθο": 5849,
      "οικ": 5850,
      "τουρκικο": 5851,
      "ειδικους": 5852,
      "αφιξη": 5853,
      "net": 5854,
      "εντυπο": 5855,
      "διερευνηση": 5856,
      "μνημειο": 5857,
      "καναλια": 5858,
      "επαλ": 5859,
      "σεισμο": 5860,
      "ml": 5861,
      "πραγματοποιησει": 5862,
      "ni": 5863,
      "καταγγελια": 5864,
      "κορυφαιο": 5865,
      "χαμηλοτερη": 5866,
      "πλεονεκτηματα": 5867,
      "ανθρακα": 5868,
      "αφετερου": 5869,
      "αλυσιδα": 5870,
      "παρατηρησεις": 5871,
      "συνολικης": 5872,
      "1980": 5873,
      "εκπ": 5874,
      "##φορα": 5875,
      "απαγορευ": 5876,
      "μορια": 5877,
      "απαιτηση": 5878,
      "πηγαινε": 5879,
      "παραδοσιακη": 5880,
      "καταρρευση": 5881,
      "##ειων": 5882,
      "ξηρο": 5883,
      "app": 5884,
      "τηγανι": 5885,
      "συμπληρωμα": 5886,
      "##σθε": 5887,
      "##χος": 5888,
      "αιγυπτο": 5889,
      "ουσιων": 5890,
      "αυξηθει": 5891,
      "πανο": 5892,
      "##ροι": 5893,
      "δικους": 5894,
      "##000": 5895,
      "γκαμα": 5896,
      "αθλητικα": 5897,
      "γεννα": 5898,
      "##ish": 5899,
      "καλου": 5900,
      "καμπ": 5901,
      "στηριζεται": 5902,
      "σωματα": 5903,
      "pan": 5904,
      "οργανισμων": 5905,
      "εντολες": 5906,
      "αρπα": 5907,
      "##56": 5908,
      "##νταν": 5909,
      "βασικος": 5910,
      "ολλανδια": 5911,
      "##λογ": 5912,
      "ποτα": 5913,
      "##ρεα": 5914,
      "εκλογη": 5915,
      "κολα": 5916,
      "τερ": 5917,
      "απεκτησε": 5918,
      "αντιμετωπισης": 5919,
      "διασκεδαση": 5920,
      "##ast": 5921,
      "ενδεικτικα": 5922,
      "##pp": 5923,
      "##τισμο": 5924,
      "ετοιμοι": 5925,
      "##ταξι": 5926,
      "ταχυ": 5927,
      "##παρα": 5928,
      "συμφωνη": 5929,
      "υπαρξουν": 5930,
      "φεβ": 5931,
      "##γμα": 5932,
      "τυ": 5933,
      "εμφανιστει": 5934,
      "μαγαζι": 5935,
      "ουσιας": 5936,
      "##γεν": 5937,
      "καλουμε": 5938,
      "παρτι": 5939,
      "αδια": 5940,
      "πραγματοποιηση": 5941,
      "δυσκολευ": 5942,
      "##βω": 5943,
      "ηνωμενες": 5944,
      "περιστατικα": 5945,
      "##ft": 5946,
      "91": 5947,
      "ανασα": 5948,
      "καθοδηγηση": 5949,
      "ελαβαν": 5950,
      "ασχοληθει": 5951,
      "##ημερο": 5952,
      "##βουν": 5953,
      "ενημερωσε": 5954,
      "εξασφαλισει": 5955,
      "ja": 5956,
      "σκονη": 5957,
      "εκστρατεια": 5958,
      "ραδιο": 5959,
      "fm": 5960,
      "ασθενεια": 5961,
      "nu": 5962,
      "ραδιοφωνο": 5963,
      "##νακι": 5964,
      "πολεων": 5965,
      "ηλιας": 5966,
      "##ds": 5967,
      "κτιριων": 5968,
      "επισκεφθειτε": 5969,
      "καταλαβα": 5970,
      "λυπη": 5971,
      "##ib": 5972,
      "ποταμου": 5973,
      "σπ": 5974,
      "αποβλητων": 5975,
      "αδειες": 5976,
      "πραξεων": 5977,
      "πωλησεων": 5978,
      "αλλαξουν": 5979,
      "##rs": 5980,
      "μαθητη": 5981,
      "λογαριασμου": 5982,
      "##ρνα": 5983,
      "αρχαιοτητα": 5984,
      "εκεινων": 5985,
      "συγγραφεις": 5986,
      "δουλειας": 5987,
      "απολαυσετε": 5988,
      "χιου": 5989,
      "εργατικο": 5990,
      "οδος": 5991,
      "πιστα": 5992,
      "δημοσιοτητα": 5993,
      "αμερικανος": 5994,
      "σταθμους": 5995,
      "μετριο": 5996,
      "ντοκιμαντερ": 5997,
      "σαμαρας": 5998,
      "##αυτο": 5999,
      "##06": 6000,
      "ενισχυσης": 6001,
      "plus": 6002,
      "##eg": 6003,
      "διεθνως": 6004,
      "σαραντα": 6005,
      "βουτυρο": 6006,
      "γερμανοι": 6007,
      "αντρας": 6008,
      "αποδεικνυεται": 6009,
      "παικτη": 6010,
      "σημειωθηκε": 6011,
      "##τινη": 6012,
      "μετ": 6013,
      "γυμναστηριο": 6014,
      "προβει": 6015,
      "βραβευ": 6016,
      "αναζητα": 6017,
      "##ab": 6018,
      "##θων": 6019,
      "##στοι": 6020,
      "δευτεροβαθμιας": 6021,
      "##ella": 6022,
      "παρελθοντος": 6023,
      "##fa": 6024,
      "εννοιες": 6025,
      "διαλυση": 6026,
      "βρισκεστε": 6027,
      "απαγορευεται": 6028,
      "##στω": 6029,
      "πτυχιο": 6030,
      "##θος": 6031,
      "##ισθη": 6032,
      "κραταει": 6033,
      "##pt": 6034,
      "ντερμπι": 6035,
      "##θρα": 6036,
      "ποτηρι": 6037,
      "τζακι": 6038,
      "life": 6039,
      "ετερο": 6040,
      "καταγωγη": 6041,
      "διοργανωσε": 6042,
      "##τατο": 6043,
      "αποθηκευση": 6044,
      "μακρο": 6045,
      "παραγωγικη": 6046,
      "ανωτατο": 6047,
      "αγαθων": 6048,
      "μοναχα": 6049,
      "νοσηλευ": 6050,
      "ζωες": 6051,
      "πυρηνα": 6052,
      "μπαλκονι": 6053,
      "##ερι": 6054,
      "##φορε": 6055,
      "επιρροη": 6056,
      "##ris": 6057,
      "δικαστηριου": 6058,
      "συνδρομο": 6059,
      "καθαρισμο": 6060,
      "παρατηρηση": 6061,
      "εισβολη": 6062,
      "απολλωνα": 6063,
      "##tes": 6064,
      "##ther": 6065,
      "τρεχουσα": 6066,
      "ξεχναμε": 6067,
      "σια": 6068,
      "πιατο": 6069,
      "##γνω": 6070,
      "ξεπερασει": 6071,
      "κληρωση": 6072,
      "σκηνες": 6073,
      "φλα": 6074,
      "περιοδικα": 6075,
      "συσκεψη": 6076,
      "reviewed": 6077,
      "χρειαζομαστε": 6078,
      "βρεθουν": 6079,
      "φτανουν": 6080,
      "αποκτησουν": 6081,
      "υγ": 6082,
      "##γραφων": 6083,
      "σχηματα": 6084,
      "λευκη": 6085,
      "εγκ": 6086,
      "αντιστοιχες": 6087,
      "υποθεσεων": 6088,
      "καταναλωτων": 6089,
      "κυπριακο": 6090,
      "λογ": 6091,
      "ιε": 6092,
      "εξασφαλιζει": 6093,
      "κατηγορ": 6094,
      "par": 6095,
      "cc": 6096,
      "##μιν": 6097,
      "σαρα": 6098,
      "ορθη": 6099,
      "ηνωμενων": 6100,
      "##γκι": 6101,
      "ολοκληρου": 6102,
      "καταληψη": 6103,
      "##χες": 6104,
      "εμπρος": 6105,
      "ιουν": 6106,
      "διακοπων": 6107,
      "φαι": 6108,
      "ιρακ": 6109,
      "##στρο": 6110,
      "##art": 6111,
      "κοινων": 6112,
      "επιβαλλεται": 6113,
      "φυλα": 6114,
      "##ok": 6115,
      "ελλειμμα": 6116,
      "δοντια": 6117,
      "##43": 6118,
      "##γραφ": 6119,
      "πλα": 6120,
      "##ημενη": 6121,
      "ζωνης": 6122,
      "##ence": 6123,
      "παναγιωτη": 6124,
      "ρολοι": 6125,
      "##89": 6126,
      "##ve": 6127,
      "##84": 6128,
      "θερμιδες": 6129,
      "εγκεφαλου": 6130,
      "απασχολει": 6131,
      "μεινετε": 6132,
      "υποχρεωσεων": 6133,
      "##line": 6134,
      "τριτης": 6135,
      "πορτο": 6136,
      "κρινει": 6137,
      "πεπ": 6138,
      "προτεινε": 6139,
      "καταστηματων": 6140,
      "##χρονι": 6141,
      "προσκ": 6142,
      "##τατη": 6143,
      "αστυνομικων": 6144,
      "μαλ": 6145,
      "συνθημα": 6146,
      "ηξερε": 6147,
      "μνημεια": 6148,
      "παραγραφος": 6149,
      "αγριο": 6150,
      "##μορφω": 6151,
      "##τουρ": 6152,
      "κιτρινο": 6153,
      "βεβαιο": 6154,
      "##πλο": 6155,
      "κουτ": 6156,
      "##ομουν": 6157,
      "εισφορες": 6158,
      "##ho": 6159,
      "ανετο": 6160,
      "εξυπνο": 6161,
      "##ικους": 6162,
      "προηγουμενως": 6163,
      "σουηδια": 6164,
      "τεμ": 6165,
      "προτασεων": 6166,
      "ατ": 6167,
      "φιλτρο": 6168,
      "##ten": 6169,
      "auto": 6170,
      "νυν": 6171,
      "αφιερωμα": 6172,
      "forum": 6173,
      "κερδιζει": 6174,
      "καλαθι": 6175,
      "ζωντανα": 6176,
      "ξεκινημα": 6177,
      "μητσοτακης": 6178,
      "##42": 6179,
      "μπεν": 6180,
      "κιθαρα": 6181,
      "αλευρι": 6182,
      "##ινω": 6183,
      "##ica": 6184,
      "##ουρα": 6185,
      "##πει": 6186,
      "συμβουλευ": 6187,
      "eu": 6188,
      "παρεμεινε": 6189,
      "φακο": 6190,
      "##σκου": 6191,
      "κρατησεις": 6192,
      "απομακρυνση": 6193,
      "ενεργα": 6194,
      "κολλα": 6195,
      "προσφατες": 6196,
      "υφισταται": 6197,
      "##εγ": 6198,
      "μεγαλυτερος": 6199,
      "καινουριο": 6200,
      "οδηγιας": 6201,
      "##λιας": 6202,
      "στηριζει": 6203,
      "ηλεκτρικης": 6204,
      "σημαντικοτερο": 6205,
      "##ηθ": 6206,
      "βασιλικη": 6207,
      "πηγαν": 6208,
      "επιθυμειτε": 6209,
      "##gb": 6210,
      "πτησεις": 6211,
      "υπογραμμισε": 6212,
      "καρυ": 6213,
      "παραλαβη": 6214,
      "λιγους": 6215,
      "στελεχος": 6216,
      "γκε": 6217,
      "ασχολουνται": 6218,
      "κουζινας": 6219,
      "##οπουλο": 6220,
      "αυτοματη": 6221,
      "παυλου": 6222,
      "συμμετοχες": 6223,
      "μοσχα": 6224,
      "θερμοκρασιας": 6225,
      "ανταποκριση": 6226,
      "des": 6227,
      "προσδοκιες": 6228,
      "επιτυχημενη": 6229,
      "ειπαμε": 6230,
      "##σαρ": 6231,
      "αφηγηση": 6232,
      "tra": 6233,
      "τεχνικος": 6234,
      "##ωνεται": 6235,
      "στρατοπεδο": 6236,
      "john": 6237,
      "ασθενης": 6238,
      "συνεχισουν": 6239,
      "χρειαζεστε": 6240,
      "αναπληρωτης": 6241,
      "##ara": 6242,
      "ευρωπαικα": 6243,
      "διαταραχη": 6244,
      "αποψε": 6245,
      "##δημο": 6246,
      "##διω": 6247,
      "mini": 6248,
      "##ακου": 6249,
      "βλεποντας": 6250,
      "ποιημα": 6251,
      "πλατος": 6252,
      "##ire": 6253,
      "πυλη": 6254,
      "μειωθει": 6255,
      "γκ": 6256,
      "περιε": 6257,
      "συμφωνιες": 6258,
      "##ze": 6259,
      "υπολοιπους": 6260,
      "##100": 6261,
      "σοκολατα": 6262,
      "παναθηναικου": 6263,
      "##γγα": 6264,
      "αγωνιστικο": 6265,
      "ροκ": 6266,
      "##στρω": 6267,
      "βιομηχανιας": 6268,
      "##λουν": 6269,
      "μοδας": 6270,
      "παραγοντα": 6271,
      "δευτερου": 6272,
      "##θηκαμε": 6273,
      "βασιλισσα": 6274,
      "κουν": 6275,
      "##au": 6276,
      "##θυ": 6277,
      "αρθρων": 6278,
      "μαθητης": 6279,
      "##ρους": 6280,
      "##ting": 6281,
      "εφτασαν": 6282,
      "kg": 6283,
      "ατομικη": 6284,
      "λαων": 6285,
      "##ιφ": 6286,
      "##ιζα": 6287,
      "ιατρικο": 6288,
      "εδινε": 6289,
      "πετρελαιο": 6290,
      "##ησουμε": 6291,
      "καλως": 6292,
      "σταματα": 6293,
      "υγρα": 6294,
      "βραβεια": 6295,
      "διοικητικης": 6296,
      "##ιστικη": 6297,
      "θυ": 6298,
      "ψευδο": 6299,
      "ορισμενοι": 6300,
      "σχ": 6301,
      "##οντος": 6302,
      "βροχη": 6303,
      "απορριμματων": 6304,
      "ευκολια": 6305,
      "προσφορων": 6306,
      "οθονης": 6307,
      "ειδαν": 6308,
      "posted": 6309,
      "##κωνσταντινουπολη": 6310,
      "ροδι": 6311,
      "αποκλει": 6312,
      "κρε": 6313,
      "ενισχυ": 6314,
      "χαλι": 6315,
      "##ρισμα": 6316,
      "μεταβολη": 6317,
      "συσκευης": 6318,
      "ενθουσιασμο": 6319,
      "στροφη": 6320,
      "συνδεσμος": 6321,
      "μητσοτακη": 6322,
      "περισσοτερων": 6323,
      "ακαδημια": 6324,
      "συγκεκριμενου": 6325,
      "υπερβαινει": 6326,
      "περιορισμενη": 6327,
      "ευθεια": 6328,
      "κρατικη": 6329,
      "##ki": 6330,
      "επωνυμια": 6331,
      "προσοντα": 6332,
      "γεννηση": 6333,
      "χρησιμοποιηθουν": 6334,
      "πολωνια": 6335,
      "πγδμ": 6336,
      "##δακης": 6337,
      "##ετη": 6338,
      "τσακ": 6339,
      "πατατες": 6340,
      "##ησης": 6341,
      "τραυματισμο": 6342,
      "καταφυγιο": 6343,
      "τραγικο": 6344,
      "ανοικτο": 6345,
      "##ματι": 6346,
      "ομορφες": 6347,
      "σημειωμα": 6348,
      "προσαρμογη": 6349,
      "οροφο": 6350,
      "θεσπι": 6351,
      "φωτογραφιας": 6352,
      "mon": 6353,
      "ξενα": 6354,
      "ενδιαφερομενοι": 6355,
      "εθνων": 6356,
      "##βει": 6357,
      "επιτυχη": 6358,
      "παλαιοτερα": 6359,
      "προβλεπονται": 6360,
      "αρχαιας": 6361,
      "##ash": 6362,
      "ανεξαρτητη": 6363,
      "##ισσα": 6364,
      "γραφω": 6365,
      "κλασικο": 6366,
      "ταλεντο": 6367,
      "##υλ": 6368,
      "μυτη": 6369,
      "##41": 6370,
      "##tis": 6371,
      "κρισιμο": 6372,
      "συμφωνω": 6373,
      "συλλογης": 6374,
      "ελαφρα": 6375,
      "λιπους": 6376,
      "εξυπηρετει": 6377,
      "##πατ": 6378,
      "τσου": 6379,
      "συνεχιση": 6380,
      "##λαμ": 6381,
      "βραχ": 6382,
      "κωνσταντινουπολ": 6383,
      "##ens": 6384,
      "σερβι": 6385,
      "##υλων": 6386,
      "μουσικα": 6387,
      "μεταβαση": 6388,
      "##ex": 6389,
      "επιχειρει": 6390,
      "σπουδαια": 6391,
      "κρισιμη": 6392,
      "ακινητο": 6393,
      "εβδομαδας": 6394,
      "καταναλω": 6395,
      "επισκεπτων": 6396,
      "εκδρομη": 6397,
      "πιεσεις": 6398,
      "μαχης": 6399,
      "χαρακτηριζει": 6400,
      "παρκα": 6401,
      "αναπτυξει": 6402,
      "κυπριακη": 6403,
      "##χωρ": 6404,
      "##τοπι": 6405,
      "οικισμου": 6406,
      "##ach": 6407,
      "κανονικο": 6408,
      "ειδικος": 6409,
      "ιουδα": 6410,
      "##καλ": 6411,
      "εκτιμησεις": 6412,
      "θητεια": 6413,
      "##ομενες": 6414,
      "συμμετασχουν": 6415,
      "πολιτειας": 6416,
      "κενα": 6417,
      "διαβητη": 6418,
      "si": 6419,
      "βρισκονταν": 6420,
      "##στολ": 6421,
      "1991": 6422,
      "διαφημιση": 6423,
      "ρυ": 6424,
      "απογοητευ": 6425,
      "##ντεν": 6426,
      "πλευρο": 6427,
      "διαδρομες": 6428,
      "συνεπαγεται": 6429,
      "παραθυρα": 6430,
      "##ade": 6431,
      "##ay": 6432,
      "##ley": 6433,
      "υγρασια": 6434,
      "πλουτο": 6435,
      "μυστηριο": 6436,
      "προσφατο": 6437,
      "αγορασει": 6438,
      "αρχαιολογικο": 6439,
      "προβολης": 6440,
      "##od": 6441,
      "μον": 6442,
      "πατα": 6443,
      "εβγαλε": 6444,
      "σωματεια": 6445,
      "αναπηρια": 6446,
      "org": 6447,
      "καλης": 6448,
      "μειωνεται": 6449,
      "##ver": 6450,
      "πρωτους": 6451,
      "στρατιωτικο": 6452,
      "ιαπωνια": 6453,
      "##ale": 6454,
      "συζητησης": 6455,
      "ασκει": 6456,
      "##ld": 6457,
      "##ud": 6458,
      "σχολικης": 6459,
      "επετειο": 6460,
      "εδε": 6461,
      "##63": 6462,
      "ψυχικη": 6463,
      "προηγουμενους": 6464,
      "εσωτερικου": 6465,
      "φορουμ": 6466,
      "πλαι": 6467,
      "te": 6468,
      "ητοι": 6469,
      "πολιτιστικη": 6470,
      "αποκαταστασης": 6471,
      "οριστικα": 6472,
      "##τικ": 6473,
      "ιδανικα": 6474,
      "προσθετει": 6475,
      "##ιωτη": 6476,
      "δινουμε": 6477,
      "μεταρρυθμισεις": 6478,
      "ζεστα": 6479,
      "αντιστασης": 6480,
      "##ινγκ": 6481,
      "##προσ": 6482,
      "πετρο": 6483,
      "##so": 6484,
      "υψ": 6485,
      "επιχειρηματιες": 6486,
      "υψηλοτερο": 6487,
      "##τεχ": 6488,
      "κανονισμο": 6489,
      "λει": 6490,
      "παρεχονται": 6491,
      "κατοχης": 6492,
      "##πολιτ": 6493,
      "rating": 6494,
      "φυσιολογικο": 6495,
      "λαικης": 6496,
      "##παι": 6497,
      "χιουμορ": 6498,
      "##04": 6499,
      "##μετα": 6500,
      "υπουργων": 6501,
      "time": 6502,
      "στρατιωτικων": 6503,
      "pu": 6504,
      "παραγουν": 6505,
      "instagram": 6506,
      "χρυσης": 6507,
      "βρηκαμε": 6508,
      "##υρο": 6509,
      "##tu": 6510,
      "μετρηση": 6511,
      "καταναλωτη": 6512,
      "φορους": 6513,
      "κινητοποιηση": 6514,
      "μαζικης": 6515,
      "##58": 6516,
      "χρωματος": 6517,
      "##σσε": 6518,
      "κριμα": 6519,
      "μετατροπη": 6520,
      "##κιο": 6521,
      "κερδος": 6522,
      "ημιχρονο": 6523,
      "ξεκαθαρα": 6524,
      "εξακολουθουν": 6525,
      "##ey": 6526,
      "περνουν": 6527,
      "επηρεαζουν": 6528,
      "οριζοντα": 6529,
      "βοηθειας": 6530,
      "##γιαννης": 6531,
      "ελβετια": 6532,
      "δικαστηρια": 6533,
      "αναστολη": 6534,
      "##δυνα": 6535,
      "λοιπα": 6536,
      "##ιστει": 6537,
      "ενισχυει": 6538,
      "τσαντα": 6539,
      "αναλυσης": 6540,
      "παρθενο": 6541,
      "ιερου": 6542,
      "##ρινο": 6543,
      "κλε": 6544,
      "αφηνουν": 6545,
      "ga": 6546,
      "πετρ": 6547,
      "χαρακτηρισε": 6548,
      "ευχη": 6549,
      "τροικα": 6550,
      "##οτητας": 6551,
      "##τσ": 6552,
      "κουβεντα": 6553,
      "##mos": 6554,
      "vo": 6555,
      "ενεργειακη": 6556,
      "αθηναιων": 6557,
      "πραγματοποιει": 6558,
      "κοινοτητες": 6559,
      "##τολογια": 6560,
      "εξειδικευμενο": 6561,
      "bank": 6562,
      "ερε": 6563,
      "##53": 6564,
      "δεικτες": 6565,
      "ηρεμια": 6566,
      "game": 6567,
      "ξανθης": 6568,
      "ορεξη": 6569,
      "παρανομη": 6570,
      "##τιζει": 6571,
      "##χρωμ": 6572,
      "παρουσιαστηκε": 6573,
      "διαστηματα": 6574,
      "##αμ": 6575,
      "κατεβα": 6576,
      "καβαλας": 6577,
      "ξεπερνα": 6578,
      "ακινητα": 6579,
      "σαββατου": 6580,
      "##87": 6581,
      "hellas": 6582,
      "υποψηφιους": 6583,
      "επιχειρημα": 6584,
      "μικρης": 6585,
      "sha": 6586,
      "φρεσκα": 6587,
      "##ωτο": 6588,
      "παραγεται": 6589,
      "##ακο": 6590,
      "κανονι": 6591,
      "##νεμ": 6592,
      "##ικι": 6593,
      "ψεματα": 6594,
      "κινητα": 6595,
      "λιγοτερα": 6596,
      "μαθουν": 6597,
      "εξωτερικα": 6598,
      "δημιουργικη": 6599,
      "κληρονομιας": 6600,
      "##καθαρ": 6601,
      "σταθμευσης": 6602,
      "πονος": 6603,
      "##54": 6604,
      "επιχειρηματικο": 6605,
      "νιωθω": 6606,
      "καθηγητρια": 6607,
      "χαμογελα": 6608,
      "εδειξαν": 6609,
      "διπλωμα": 6610,
      "##ov": 6611,
      "##zi": 6612,
      "επισκευη": 6613,
      "##73": 6614,
      "##51": 6615,
      "μυθο": 6616,
      "διοργανωσης": 6617,
      "σχολικων": 6618,
      "##σπα": 6619,
      "ενταξης": 6620,
      "συναισθηματικη": 6621,
      "καλοκαιριου": 6622,
      "ποιηματα": 6623,
      "κοσ": 6624,
      "ποπ": 6625,
      "τελους": 6626,
      "επιδοση": 6627,
      "##νιων": 6628,
      "spa": 6629,
      "αεριο": 6630,
      "ζητηση": 6631,
      "σαμ": 6632,
      "αριθμους": 6633,
      "τακτικα": 6634,
      "βραχο": 6635,
      "##ικοι": 6636,
      "εθελοντες": 6637,
      "υπολοιποι": 6638,
      "##ξης": 6639,
      "cor": 6640,
      "σχηματισμο": 6641,
      "##παθεια": 6642,
      "##ωτης": 6643,
      "ουσιαστικο": 6644,
      "σχετικων": 6645,
      "αδ": 6646,
      "υποδειγμα": 6647,
      "##07": 6648,
      "##οφ": 6649,
      "110": 6650,
      "ανοικτη": 6651,
      "σκεφτει": 6652,
      "##ker": 6653,
      "χρη": 6654,
      "κοινωνιες": 6655,
      "##γενη": 6656,
      "##πολ": 6657,
      "ζι": 6658,
      "ορισμενων": 6659,
      "αρμοδιο": 6660,
      "κατεθεσε": 6661,
      "χριστουγεννων": 6662,
      "διορθω": 6663,
      "tri": 6664,
      "ανιχνευ": 6665,
      "ολ": 6666,
      "παρατηρειται": 6667,
      "ψαρι": 6668,
      "θρακη": 6669,
      "επικοινωνηστε": 6670,
      "οικοδομη": 6671,
      "κεφαλαιων": 6672,
      "σιγουρος": 6673,
      "περιθωρια": 6674,
      "προγραμματισμεν": 6675,
      "πλατ": 6676,
      "λετε": 6677,
      "##βατ": 6678,
      "σερ": 6679,
      "μετακινηση": 6680,
      "##ιζοντας": 6681,
      "συσκευων": 6682,
      "αγαθα": 6683,
      "υποχρεωτικα": 6684,
      "##ιγ": 6685,
      "##υμα": 6686,
      "κατεκτησε": 6687,
      "ρωτα": 6688,
      "υπολοιπη": 6689,
      "φεβρουαριο": 6690,
      "εαυτου": 6691,
      "##ποιησει": 6692,
      "χορου": 6693,
      "καταδικασ": 6694,
      "μετρου": 6695,
      "αναρτηθηκε": 6696,
      "τοσες": 6697,
      "συγχρονως": 6698,
      "επιχειρ": 6699,
      "υποδοχη": 6700,
      "καθηκον": 6701,
      "οικου": 6702,
      "##ja": 6703,
      "αδελφο": 6704,
      "κρατησε": 6705,
      "ευχαριστο": 6706,
      "τυπους": 6707,
      "##ger": 6708,
      "##ep": 6709,
      "εκπαιδευτικα": 6710,
      "γνωριμια": 6711,
      "πανος": 6712,
      "υπευθυνο": 6713,
      "θρησκευτικη": 6714,
      "κυκλοφορησει": 6715,
      "εξηγησε": 6716,
      "##ειας": 6717,
      "ιδεολογια": 6718,
      "αγνο": 6719,
      "τζο": 6720,
      "συνηθειες": 6721,
      "μοδα": 6722,
      "αυγης": 6723,
      "σφαιρα": 6724,
      "εκεινον": 6725,
      "1989": 6726,
      "αλβανια": 6727,
      "προβληματισμο": 6728,
      "κοκ": 6729,
      "##τοπο": 6730,
      "επιστημονικης": 6731,
      "αμαρτια": 6732,
      "##μιας": 6733,
      "μαζα": 6734,
      "αναφερθει": 6735,
      "δευτερον": 6736,
      "μπαντα": 6737,
      "κινουνται": 6738,
      "περιεκτικοτητα": 6739,
      "##ακος": 6740,
      "υπολογιστες": 6741,
      "κοκκινη": 6742,
      "αντωνη": 6743,
      "master": 6744,
      "βερολινο": 6745,
      "##τηκα": 6746,
      "##χθουν": 6747,
      "ασε": 6748,
      "τροποι": 6749,
      "her": 6750,
      "##κτι": 6751,
      "real": 6752,
      "αθλητικη": 6753,
      "οδηγου": 6754,
      "iso": 6755,
      "εισαγγελεα": 6756,
      "##τυπο": 6757,
      "ευρος": 6758,
      "επιβατες": 6759,
      "πορειας": 6760,
      "επαναστασης": 6761,
      "##τση": 6762,
      "υπαλληλος": 6763,
      "αποτελουσε": 6764,
      "τροπου": 6765,
      "πρωτοβαθμιας": 6766,
      "επενδυτες": 6767,
      "##ιζαν": 6768,
      "διαθεσιμες": 6769,
      "συντα": 6770,
      "ογκου": 6771,
      "##λαβε": 6772,
      "λογαριασμους": 6773,
      "ιδιοκτητη": 6774,
      "##ξιν": 6775,
      "αλληλο": 6776,
      "dna": 6777,
      "διαλεξε": 6778,
      "δημιουργουνται": 6779,
      "επικρατησε": 6780,
      "διακυβερνησης": 6781,
      "πληρους": 6782,
      "##γχ": 6783,
      "φυσικες": 6784,
      "##λακ": 6785,
      "εκπομπες": 6786,
      "ημερησια": 6787,
      "σκοπευ": 6788,
      "αγαθο": 6789,
      "μετεπειτα": 6790,
      "αποδεκτη": 6791,
      "κωλο": 6792,
      "κοκκινα": 6793,
      "καθημερινες": 6794,
      "music": 6795,
      "μεταδοση": 6796,
      "##out": 6797,
      "γνωρισε": 6798,
      "data": 6799,
      "αναληψη": 6800,
      "χειροτερα": 6801,
      "marketing": 6802,
      "επροκειτο": 6803,
      "αναθεωρηση": 6804,
      "υπευθυνοι": 6805,
      "πιστοποιηση": 6806,
      "ομαλη": 6807,
      "##τσος": 6808,
      "##θρο": 6809,
      "δημοκρατικη": 6810,
      "ακριβη": 6811,
      "μεσος": 6812,
      "νεαρη": 6813,
      "περιεχομενα": 6814,
      "fe": 6815,
      "##mb": 6816,
      "παθη": 6817,
      "καθημερινο": 6818,
      "ανεξαρτητως": 6819,
      "αρεσουν": 6820,
      "##ιδια": 6821,
      "σεναρια": 6822,
      "εθ": 6823,
      "ετοιμος": 6824,
      "αποστολος": 6825,
      "νεαρος": 6826,
      "οπ": 6827,
      "samsung": 6828,
      "##mer": 6829,
      "##ριν": 6830,
      "##ys": 6831,
      "τηλεοπτικο": 6832,
      "μηνυματων": 6833,
      "αυτοδιοικηση": 6834,
      "στρες": 6835,
      "απιστευτο": 6836,
      "del": 6837,
      "ατυχημα": 6838,
      "ακαδημιας": 6839,
      "λαμψη": 6840,
      "οριστικη": 6841,
      "ηλεκτρικη": 6842,
      "1986": 6843,
      "συναντησης": 6844,
      "μεταλλικο": 6845,
      "μηχανισμος": 6846,
      "##τρ": 6847,
      "κυπριακης": 6848,
      "εισιτηριο": 6849,
      "εμπλοκη": 6850,
      "σκανδαλο": 6851,
      "##κρα": 6852,
      "μερικους": 6853,
      "φοβος": 6854,
      "αυτοκρατοριας": 6855,
      "αποδεχ": 6856,
      "ενσωματωση": 6857,
      "ινστιτουτου": 6858,
      "εκλογικη": 6859,
      "us": 6860,
      "##φια": 6861,
      "συγκεκριμενων": 6862,
      "μαγ": 6863,
      "τελειωνει": 6864,
      "λιθο": 6865,
      "τιθεται": 6866,
      "φυσεως": 6867,
      "καθορισ": 6868,
      "πλει": 6869,
      "βραζιλια": 6870,
      "ανωτερο": 6871,
      "τελευταιας": 6872,
      "##tro": 6873,
      "ξηρα": 6874,
      "περιορισμο": 6875,
      "διπλη": 6876,
      "προτασης": 6877,
      "##χρη": 6878,
      "##τσης": 6879,
      "μπρα": 6880,
      "αλουμινιου": 6881,
      "##az": 6882,
      "αγγελος": 6883,
      "αποζημιωση": 6884,
      "λειτουργο": 6885,
      "ομορφιας": 6886,
      "γνωρισει": 6887,
      "##λακι": 6888,
      "πελατης": 6889,
      "συνεχιζουμε": 6890,
      "##ρακ": 6891,
      "##ez": 6892,
      "##ξουμε": 6893,
      "εμπιστοσυνης": 6894,
      "υποψηφιοτητα": 6895,
      "γεγονοτων": 6896,
      "##πτω": 6897,
      "αμφιβολια": 6898,
      "απολλων": 6899,
      "αποκλειστικη": 6900,
      "μαγικο": 6901,
      "σαπ": 6902,
      "εφεραν": 6903,
      "ανακαλυψη": 6904,
      "λιγκ": 6905,
      "κατσαρολα": 6906,
      "πετρου": 6907,
      "εκτιμαται": 6908,
      "##oo": 6909,
      "μαθηση": 6910,
      "##υδ": 6911,
      "##ισε": 6912,
      "κυνηγι": 6913,
      "μαχαιρι": 6914,
      "πνευματικα": 6915,
      "ακυρωση": 6916,
      "ξυ": 6917,
      "##θεσε": 6918,
      "##ack": 6919,
      "ενιαια": 6920,
      "μεταλλιο": 6921,
      "##ενα": 6922,
      "οργανωσεων": 6923,
      "δικης": 6924,
      "κλειδια": 6925,
      "##ιχ": 6926,
      "πληρωνει": 6927,
      "τροπολογια": 6928,
      "αποθηκη": 6929,
      "θρησκευματων": 6930,
      "ναυτικο": 6931,
      "ανταγωνισμου": 6932,
      "πολυτελεια": 6933,
      "συμμαχια": 6934,
      "εμπιστευ": 6935,
      "συναινεση": 6936,
      "ντροπη": 6937,
      "τοποθετη": 6938,
      "εφαρμοζονται": 6939,
      "στρωματα": 6940,
      "πρασινη": 6941,
      "δημοσιευτηκε": 6942,
      "##οβιτς": 6943,
      "εκδοθει": 6944,
      "επιδομα": 6945,
      "city": 6946,
      "sal": 6947,
      "##ερο": 6948,
      "θερμοκρασιες": 6949,
      "##λογου": 6950,
      "υφεση": 6951,
      "αισιοδοξια": 6952,
      "επιβαλλει": 6953,
      "στελνει": 6954,
      "φετινο": 6955,
      "αποφασισαν": 6956,
      "βασικων": 6957,
      "##χθη": 6958,
      "##82": 6959,
      "γειτονια": 6960,
      "στιχους": 6961,
      "fax": 6962,
      "καλλιεργ": 6963,
      "εγχειρημα": 6964,
      "##ρεμ": 6965,
      "##ακα": 6966,
      "best": 6967,
      "αστικη": 6968,
      "εμπορικου": 6969,
      "αναθεωρ": 6970,
      "κρινεται": 6971,
      "οφειλουν": 6972,
      "χρεων": 6973,
      "αποδεικνυει": 6974,
      "παραμυθια": 6975,
      "##τμ": 6976,
      "προσφυγη": 6977,
      "ομοιο": 6978,
      "αναγνωστες": 6979,
      "εσωτερικης": 6980,
      "ποιητης": 6981,
      "street": 6982,
      "##υνη": 6983,
      "οπλων": 6984,
      "ακολουθα": 6985,
      "br": 6986,
      "φορων": 6987,
      "κληρονομια": 6988,
      "φανει": 6989,
      "γενει": 6990,
      "σχεσης": 6991,
      "αναγκασ": 6992,
      "ναυτικου": 6993,
      "πατερ": 6994,
      "φιλοξενει": 6995,
      "οικια": 6996,
      "διανυκτερευση": 6997,
      "συνδυαζει": 6998,
      "##λεν": 6999,
      "ψηφιακο": 7000,
      "μπαινουν": 7001,
      "συνορων": 7002,
      "##λωση": 7003,
      "εθνο": 7004,
      "λονδινου": 7005,
      "θεσμο": 7006,
      "τονους": 7007,
      "##πατη": 7008,
      "##κλι": 7009,
      "εθνους": 7010,
      "fr": 7011,
      "παραβαση": 7012,
      "υγιεινης": 7013,
      "κωδ": 7014,
      "##ημα": 7015,
      "αιθουσες": 7016,
      "##ιση": 7017,
      "απωλειας": 7018,
      "γερμανικο": 7019,
      "σκυλο": 7020,
      "τουρισμο": 7021,
      "σταματησε": 7022,
      "σημειων": 7023,
      "κτι": 7024,
      "πετρες": 7025,
      "καθεστωτος": 7026,
      "διαμερισματα": 7027,
      "##yl": 7028,
      "βεβαιω": 7029,
      "μασκα": 7030,
      "τιτλους": 7031,
      "αποδειξει": 7032,
      "αγκυρα": 7033,
      "##ωνονται": 7034,
      "##διωκ": 7035,
      "χαμηλες": 7036,
      "βιταμινες": 7037,
      "προσπαθωντας": 7038,
      "ληψης": 7039,
      "καλημερα": 7040,
      "html": 7041,
      "radio": 7042,
      "εξεγερση": 7043,
      "μεσσηνιας": 7044,
      "##ita": 7045,
      "μεταφορες": 7046,
      "##den": 7047,
      "φιλικη": 7048,
      "μαχες": 7049,
      "περας": 7050,
      "δισεκατομμυρια": 7051,
      "εκπληκτικο": 7052,
      "δημοσιευσε": 7053,
      "νιωθει": 7054,
      "στενη": 7055,
      "διαθεσιμη": 7056,
      "στοχευει": 7057,
      "ερωτας": 7058,
      "##ζομενο": 7059,
      "μιλ": 7060,
      "au": 7061,
      "λυκο": 7062,
      "κοινοβουλευτικη": 7063,
      "ριχνουμε": 7064,
      "εμπειρο": 7065,
      "##γκαν": 7066,
      "εκμεταλλευσης": 7067,
      "##ef": 7068,
      "δανειστες": 7069,
      "φιλοξενια": 7070,
      "τραπεζικο": 7071,
      "ισχυς": 7072,
      "συμβαλλουν": 7073,
      "καλωδιο": 7074,
      "##nes": 7075,
      "ποσες": 7076,
      "μετοχες": 7077,
      "##way": 7078,
      "δεκτη": 7079,
      "εκπτωσεις": 7080,
      "καπνο": 7081,
      "εξαγορα": 7082,
      "πολιτιστικης": 7083,
      "γιορτες": 7084,
      "υφη": 7085,
      "παραταξη": 7086,
      "ασθενειες": 7087,
      "##uck": 7088,
      "διατιθενται": 7089,
      "σπανιο": 7090,
      "οποιουδηποτε": 7091,
      "βολ": 7092,
      "συζυγου": 7093,
      "μεινουν": 7094,
      "δηλωσης": 7095,
      "μοναδικα": 7096,
      "επικινδυνη": 7097,
      "αναστασιαδη": 7098,
      "νοσο": 7099,
      "ευημερια": 7100,
      "##ms": 7101,
      "μορ": 7102,
      "μουσικες": 7103,
      "##ιμα": 7104,
      "ακολουθως": 7105,
      "κακα": 7106,
      "καυσιμων": 7107,
      "ri": 7108,
      "παρομοιο": 7109,
      "##καμ": 7110,
      "ξεκινωντας": 7111,
      "##σερ": 7112,
      "##φοι": 7113,
      "ενημερωτικο": 7114,
      "αντιπαραθεση": 7115,
      "##λιων": 7116,
      "##92": 7117,
      "eco": 7118,
      "βορειας": 7119,
      "##τατα": 7120,
      "αναλογια": 7121,
      "ηγετης": 7122,
      "mp": 7123,
      "υπερβολικη": 7124,
      "φρι": 7125,
      "##ραγματοποιηθηκαν": 7126,
      "ηελ": 7127,
      "πρωταθλητη": 7128,
      "παθησεις": 7129,
      "αγορια": 7130,
      "θυμο": 7131,
      "δωσω": 7132,
      "ζευγαρια": 7133,
      "σταματη": 7134,
      "βγαινουν": 7135,
      "διαφορετικων": 7136,
      "προληψης": 7137,
      "μπακ": 7138,
      "##υχο": 7139,
      "εντυπωσεις": 7140,
      "χειλη": 7141,
      "θεαμα": 7142,
      "εκκλησιες": 7143,
      "##ιμη": 7144,
      "ρυζι": 7145,
      "προυπολογισμος": 7146,
      "park": 7147,
      "##ποιουν": 7148,
      "ταφο": 7149,
      "σπουδασε": 7150,
      "##υσ": 7151,
      "μνημονιου": 7152,
      "##ung": 7153,
      "μισθο": 7154,
      "##ομα": 7155,
      "##βιβα": 7156,
      "βαν": 7157,
      "κανονων": 7158,
      "δημοκρατικο": 7159,
      "αντιθετη": 7160,
      "##φορο": 7161,
      "ανδρο": 7162,
      "τελευταιος": 7163,
      "μεσης": 7164,
      "τεραστιες": 7165,
      "##by": 7166,
      "ρωτησε": 7167,
      "αποστολου": 7168,
      "ακουει": 7169,
      "ορθοδοξη": 7170,
      "κτημα": 7171,
      "ανεπαρκεια": 7172,
      "προσωρινα": 7173,
      "blue": 7174,
      "##λεα": 7175,
      "##ουμενη": 7176,
      "##τικους": 7177,
      "τιμωρια": 7178,
      "διαβαζει": 7179,
      "μηχανημα": 7180,
      "δικτυωσης": 7181,
      "χριστιανοι": 7182,
      "πιθανως": 7183,
      "μοιαζουν": 7184,
      "διακρισεις": 7185,
      "αποφασι": 7186,
      "απειλες": 7187,
      "1985": 7188,
      "##κυκλ": 7189,
      "##du": 7190,
      "πμ": 7191,
      "εμπειριας": 7192,
      "μαγεια": 7193,
      "επισκεψεις": 7194,
      "αρμοδιες": 7195,
      "γρα": 7196,
      "αποδειχθει": 7197,
      "cr": 7198,
      "αθλημα": 7199,
      "##λακης": 7200,
      "υποδοχης": 7201,
      "ψηλο": 7202,
      "link": 7203,
      "χρησιμοποιηστε": 7204,
      "σειρες": 7205,
      "φυλο": 7206,
      "παλη": 7207,
      "καταληξει": 7208,
      "##ide": 7209,
      "επιτρεψει": 7210,
      "επιφανειας": 7211,
      "##ave": 7212,
      "##han": 7213,
      "νομων": 7214,
      "##ven": 7215,
      "ιρλανδια": 7216,
      "παγο": 7217,
      "αμερικανοι": 7218,
      "γευσεις": 7219,
      "##kin": 7220,
      "εκφρασης": 7221,
      "διευκολυν": 7222,
      "##παθη": 7223,
      "συνεχισουμε": 7224,
      "περιφερειες": 7225,
      "##δακη": 7226,
      "αλλης": 7227,
      "ημερομηνιες": 7228,
      "δοκιμασει": 7229,
      "αναγνωριζει": 7230,
      "διαμονης": 7231,
      "αδικο": 7232,
      "str": 7233,
      "αναθεση": 7234,
      "αναγνωστη": 7235,
      "απιστευτη": 7236,
      "απολυ": 7237,
      "##λεσ": 7238,
      "απορριψη": 7239,
      "φυτων": 7240,
      "##ous": 7241,
      "προεδρια": 7242,
      "εξασφαλιση": 7243,
      "##διου": 7244,
      "καθοριζεται": 7245,
      "απομονω": 7246,
      "προσανατολισμο": 7247,
      "##σθηκε": 7248,
      "σοφ": 7249,
      "νομικων": 7250,
      "ανατολης": 7251,
      "υπερβολικα": 7252,
      "τολμη": 7253,
      "χαιρετισμο": 7254,
      "##ιδων": 7255,
      "πατρας": 7256,
      "λεγει": 7257,
      "ελληνισμου": 7258,
      "γνωριζε": 7259,
      "βρισκουν": 7260,
      "τουρκο": 7261,
      "es": 7262,
      "συμπεριφορες": 7263,
      "καταθεσει": 7264,
      "ευρωζωνη": 7265,
      "κεντρικου": 7266,
      "130": 7267,
      "καινουρια": 7268,
      "περιοδικου": 7269,
      "υποτιθεται": 7270,
      "γραφης": 7271,
      "αλη": 7272,
      "##γραφη": 7273,
      "θηκη": 7274,
      "id": 7275,
      "μαζικη": 7276,
      "τρυπα": 7277,
      "επιλεγουν": 7278,
      "##sc": 7279,
      "πασης": 7280,
      "##σος": 7281,
      "πληθυσμος": 7282,
      "##ρικη": 7283,
      "ισλαμ": 7284,
      "αναπτυξιακη": 7285,
      "δημιουργησαν": 7286,
      "ασφαλιση": 7287,
      "διαφορετικους": 7288,
      "σκεφτηκα": 7289,
      "φαει": 7290,
      "αστερια": 7291,
      "αεροπλανο": 7292,
      "συγχρονα": 7293,
      "νικης": 7294,
      "παρο": 7295,
      "σχετικης": 7296,
      "περιμενω": 7297,
      "καταθλιψη": 7298,
      "αυτονομια": 7299,
      "##μην": 7300,
      "office": 7301,
      "εμειναν": 7302,
      "τιμ": 7303,
      "ψηφισμα": 7304,
      "ασφαλιστικων": 7305,
      "τζα": 7306,
      "##sis": 7307,
      "καρτας": 7308,
      "οικογενειακη": 7309,
      "ασφαλιστικο": 7310,
      "##sen": 7311,
      "##δεικνυ": 7312,
      "πνευματικης": 7313,
      "##νομ": 7314,
      "ελαχιστες": 7315,
      "##ησω": 7316,
      "##τρου": 7317,
      "αναπτυσσεται": 7318,
      "σεληνη": 7319,
      "λοιπων": 7320,
      "##τινο": 7321,
      "δυ": 7322,
      "λιγοι": 7323,
      "πρασινου": 7324,
      "ανεξαρτησια": 7325,
      "ιδεων": 7326,
      "σκηνης": 7327,
      "ερωτικη": 7328,
      "##ιστικα": 7329,
      "##βουλ": 7330,
      "αγαπω": 7331,
      "κινητρο": 7332,
      "φασεις": 7333,
      "μεριδα": 7334,
      "##com": 7335,
      "##tel": 7336,
      "βουλευτων": 7337,
      "αντικειμενων": 7338,
      "εντονες": 7339,
      "ετησιως": 7340,
      "κανονισμος": 7341,
      "χου": 7342,
      "σαλτσα": 7343,
      "λεσβου": 7344,
      "εμφανισης": 7345,
      "κριτικες": 7346,
      "σελιδας": 7347,
      "ξενους": 7348,
      "##book": 7349,
      "##ιαν": 7350,
      "βασιλεια": 7351,
      "ευαισθητο": 7352,
      "##τλ": 7353,
      "γεωργιας": 7354,
      "fo": 7355,
      "προσφερ": 7356,
      "ρημα": 7357,
      "συνεχης": 7358,
      "ηπειρο": 7359,
      "χαρτες": 7360,
      "##ωμενος": 7361,
      "σεβ": 7362,
      "μεριδιο": 7363,
      "##θεις": 7364,
      "συνεργατης": 7365,
      "συγκρουσεις": 7366,
      "θλιψη": 7367,
      "αστυνομικο": 7368,
      "συνδε": 7369,
      "ακολουθησουν": 7370,
      "εκπληκτικη": 7371,
      "##ποιηθουν": 7372,
      "αγωνιζεται": 7373,
      "συνεπ": 7374,
      "καταστει": 7375,
      "εθεσε": 7376,
      "##κτικο": 7377,
      "καρεκλα": 7378,
      "##rm": 7379,
      "κοινοτητων": 7380,
      "φανταζ": 7381,
      "##κλιν": 7382,
      "sex": 7383,
      "πολιτιστικου": 7384,
      "##ντων": 7385,
      "καταταξη": 7386,
      "τεχνολογιων": 7387,
      "αγγελ": 7388,
      "κυριαρχο": 7389,
      "παρτε": 7390,
      "##ano": 7391,
      "##ργα": 7392,
      "##τινες": 7393,
      "τουριστικο": 7394,
      "στατιστικα": 7395,
      "καστοριας": 7396,
      "##πορ": 7397,
      "καταλογος": 7398,
      "διαδοση": 7399,
      "μοντερνο": 7400,
      "κορυφης": 7401,
      "##unt": 7402,
      "περιοδεια": 7403,
      "##πουλο": 7404,
      "γυαλια": 7405,
      "ριζα": 7406,
      "τυπ": 7407,
      "δασκαλος": 7408,
      "επιβαρυνση": 7409,
      "υψομετρο": 7410,
      "##μπελ": 7411,
      "##las": 7412,
      "university": 7413,
      "δειγματα": 7414,
      "συστατικο": 7415,
      "παραβιαση": 7416,
      "##ορθ": 7417,
      "##ιους": 7418,
      "πυρκαγια": 7419,
      "χριστιανισμο": 7420,
      "πρακτικων": 7421,
      "##δεν": 7422,
      "ενθαρρυν": 7423,
      "σπυρος": 7424,
      "ενδιαφερ": 7425,
      "δου": 7426,
      "μαρκ": 7427,
      "πρε": 7428,
      "##ωδεις": 7429,
      "αντιδρα": 7430,
      "1940": 7431,
      "διοικητικη": 7432,
      "αποκλειεται": 7433,
      "ξεχωριζει": 7434,
      "χρωματων": 7435,
      "φευγει": 7436,
      "πλανη": 7437,
      "συνεργασιες": 7438,
      "κληση": 7439,
      "μοντερνα": 7440,
      "day": 7441,
      "##μφ": 7442,
      "κερκυρας": 7443,
      "κρεμ": 7444,
      "βαλτε": 7445,
      "εκτυπωση": 7446,
      "αστικο": 7447,
      "καπακι": 7448,
      "καβαλα": 7449,
      "sun": 7450,
      "βαθμου": 7451,
      "συγκεντρωσης": 7452,
      "##χεια": 7453,
      "χιονι": 7454,
      "καταλληλες": 7455,
      "δηλωνουν": 7456,
      "##iz": 7457,
      "##ελλη": 7458,
      "αποθηκευσης": 7459,
      "κατσι": 7460,
      "απορροφηση": 7461,
      "αυτονομη": 7462,
      "υποβληθει": 7463,
      "##γιαννη": 7464,
      "##ωτα": 7465,
      "ολυμπια": 7466,
      "καλαματα": 7467,
      "##ani": 7468,
      "φορεμα": 7469,
      "μαρτυρες": 7470,
      "βενιζελος": 7471,
      "ανθρωποτητα": 7472,
      "τρικαλων": 7473,
      "download": 7474,
      "σκεφτομαι": 7475,
      "χριστινα": 7476,
      "απεικονιση": 7477,
      "##λαμβα": 7478,
      "σκουπιδια": 7479,
      "##λινα": 7480,
      "μειωσει": 7481,
      "αγαλμα": 7482,
      "υπογειο": 7483,
      "##ωθηκαν": 7484,
      "τζον": 7485,
      "μπρι": 7486,
      "##ling": 7487,
      "αυξησης": 7488,
      "ιδιωτες": 7489,
      "απατη": 7490,
      "ζην": 7491,
      "gi": 7492,
      "αναχωρηση": 7493,
      "επιθεωρηση": 7494,
      "ενεργειων": 7495,
      "##μπου": 7496,
      "εξυπηρετ": 7497,
      "##γγι": 7498,
      "αιτιες": 7499,
      "160": 7500,
      "υλοποιει": 7501,
      "αναπτυχθει": 7502,
      "##ισει": 7503,
      "οριζονται": 7504,
      "##δοχ": 7505,
      "μεταλλα": 7506,
      "εντα": 7507,
      "συναντα": 7508,
      "εκτοξευ": 7509,
      "##ren": 7510,
      "##τεια": 7511,
      "##χν": 7512,
      "χω": 7513,
      "ακα": 7514,
      "iii": 7515,
      "cha": 7516,
      "γυμνα": 7517,
      "λια": 7518,
      "πατριδας": 7519,
      "εξισωση": 7520,
      "εμφανιζει": 7521,
      "##ειδη": 7522,
      "εχασαν": 7523,
      "va": 7524,
      "ραμ": 7525,
      "συστηματικη": 7526,
      "ep": 7527,
      "ντοματα": 7528,
      "##mon": 7529,
      "αρετη": 7530,
      "##οντων": 7531,
      "οφειλουμε": 7532,
      "ευρωζωνης": 7533,
      "αμυν": 7534,
      "δανειο": 7535,
      "αθανασιος": 7536,
      "iv": 7537,
      "εμπορια": 7538,
      "καλεσμα": 7539,
      "##ain": 7540,
      "σπι": 7541,
      "δυναμικα": 7542,
      "ιδ": 7543,
      "ταξιδιου": 7544,
      "mega": 7545,
      "αστερι": 7546,
      "ξενοι": 7547,
      "1970": 7548,
      "χρειαστηκε": 7549,
      "##πραγματοποιηθουν": 7550,
      "φανελα": 7551,
      "μερικη": 7552,
      "hot": 7553,
      "##μπορ": 7554,
      "επενδυ": 7555,
      "παλαια": 7556,
      "##λικη": 7557,
      "κυριακος": 7558,
      "επιδειξη": 7559,
      "πετ": 7560,
      "##con": 7561,
      "τιμονι": 7562,
      "βαλε": 7563,
      "##θετο": 7564,
      "πολο": 7565,
      "ιση": 7566,
      "γαμος": 7567,
      "high": 7568,
      "μαλακο": 7569,
      "τηλεοπτικη": 7570,
      "κυτταρων": 7571,
      "καταστασεων": 7572,
      "προσφερεται": 7573,
      "συγκυρια": 7574,
      "νεκρους": 7575,
      "ταχυτητας": 7576,
      "χαιρε": 7577,
      "αγγλικη": 7578,
      "λαμβανονται": 7579,
      "μεγεθη": 7580,
      "##σιμα": 7581,
      "av": 7582,
      "##σφαιρ": 7583,
      "παλαι": 7584,
      "διαπραγματευ": 7585,
      "ζηταει": 7586,
      "##ριζε": 7587,
      "γαλλικο": 7588,
      "προσωρινη": 7589,
      "φροντιδας": 7590,
      "συμβαλει": 7591,
      "##ιστη": 7592,
      "γιαουρτι": 7593,
      "χειρισμο": 7594,
      "ευα": 7595,
      "##παντ": 7596,
      "κολο": 7597,
      "##γος": 7598,
      "τονιζοντας": 7599,
      "διασημο": 7600,
      "##υτα": 7601,
      "τωι": 7602,
      "αναπαραγωγη": 7603,
      "επιβιωση": 7604,
      "##oi": 7605,
      "περικοπες": 7606,
      "προτεινουμε": 7607,
      "κεντρων": 7608,
      "διαπραγματευση": 7609,
      "love": 7610,
      "χιο": 7611,
      "ενεργη": 7612,
      "##λογο": 7613,
      "αυτοπεποιθηση": 7614,
      "ανασταση": 7615,
      "ακαδημαικο": 7616,
      "##οβα": 7617,
      "διενεργεια": 7618,
      "ακολουθια": 7619,
      "##νιες": 7620,
      "ευθυ": 7621,
      "τινα": 7622,
      "δεξιο": 7623,
      "αφετηρια": 7624,
      "ρω": 7625,
      "μεγας": 7626,
      "##gi": 7627,
      "##μηνο": 7628,
      "##ns": 7629,
      "πεθανει": 7630,
      "ιχνη": 7631,
      "ανησυχιες": 7632,
      "from": 7633,
      "ενηλικων": 7634,
      "στιλ": 7635,
      "απολαυση": 7636,
      "##κολλ": 7637,
      "digital": 7638,
      "μπ": 7639,
      "πληρωνουν": 7640,
      "##ωθη": 7641,
      "πυργο": 7642,
      "αισθανεται": 7643,
      "your": 7644,
      "1960": 7645,
      "##ονια": 7646,
      "##ζων": 7647,
      "μοναδικες": 7648,
      "αφρο": 7649,
      "##end": 7650,
      "στουντιο": 7651,
      "αιρε": 7652,
      "##κρο": 7653,
      "γαλλικα": 7654,
      "πληρωμων": 7655,
      "βλαχο": 7656,
      "μειωμενη": 7657,
      "διαμαρτυριας": 7658,
      "υπερασπισ": 7659,
      "μαξιμου": 7660,
      "τουριστικη": 7661,
      "χορωδια": 7662,
      "ηρωα": 7663,
      "ειδ": 7664,
      "##υρε": 7665,
      "φανταστικο": 7666,
      "##lan": 7667,
      "εγκαιρη": 7668,
      "μαθαινει": 7669,
      "ιταλικη": 7670,
      "επιβεβαιωση": 7671,
      "εδαφη": 7672,
      "καθολικη": 7673,
      "ρωσικη": 7674,
      "πυ": 7675,
      "ορισμο": 7676,
      "προσθετοντας": 7677,
      "διαθετουμε": 7678,
      "λευκωσια": 7679,
      "εγχειριδιο": 7680,
      "grand": 7681,
      "ti": 7682,
      "##θησαν": 7683,
      "μισθους": 7684,
      "##μπαν": 7685,
      "τηλεφωνου": 7686,
      "κινητρα": 7687,
      "επιχειρηματα": 7688,
      "δοκιμη": 7689,
      "τρω": 7690,
      "κινας": 7691,
      "μπαλ": 7692,
      "υπερασπιση": 7693,
      "αστο": 7694,
      "##γορα": 7695,
      "χαθει": 7696,
      "mil": 7697,
      "laser": 7698,
      "υλης": 7699,
      "πηραμε": 7700,
      "αυστηρα": 7701,
      "##ουλ": 7702,
      "φθορα": 7703,
      "εφημερι": 7704,
      "##μετρο": 7705,
      "αρμοδιοτητες": 7706,
      "ετικετα": 7707,
      "##χλ": 7708,
      "χρησεις": 7709,
      "##προσωπ": 7710,
      "χτυπημα": 7711,
      "δεσμο": 7712,
      "public": 7713,
      "σπηλαιο": 7714,
      "χορ": 7715,
      "##rt": 7716,
      "##θηκη": 7717,
      "επιμονη": 7718,
      "##σματα": 7719,
      "##λιδης": 7720,
      "##χθηκαν": 7721,
      "##tri": 7722,
      "##ντζα": 7723,
      "δημοσιογραφους": 7724,
      "θεσμους": 7725,
      "διαβασε": 7726,
      "πεν": 7727,
      "##ium": 7728,
      "##dr": 7729,
      "ψαχνει": 7730,
      "μητροπολη": 7731,
      "αντιμετωπισουν": 7732,
      "επη": 7733,
      "ju": 7734,
      "δραμας": 7735,
      "ανοχη": 7736,
      "υφυπουργος": 7737,
      "ελπιζουμε": 7738,
      "αρνητικες": 7739,
      "σιδηρο": 7740,
      "not": 7741,
      "##ator": 7742,
      "επαγγελματιων": 7743,
      "##ωματα": 7744,
      "##πλου": 7745,
      "παραδοσεις": 7746,
      "τοποθετηθει": 7747,
      "σκηνοθετη": 7748,
      "##λθ": 7749,
      "ανταλλακτικα": 7750,
      "οχηματος": 7751,
      "ab": 7752,
      "επιμελητηριο": 7753,
      "ακουσα": 7754,
      "εξαγ": 7755,
      "μειωσης": 7756,
      "fu": 7757,
      "##cu": 7758,
      "ασφαλες": 7759,
      "μουσεια": 7760,
      "μεσαια": 7761,
      "γυναικειο": 7762,
      "πικ": 7763,
      "καταφερνει": 7764,
      "εργοδοτη": 7765,
      "ηνωμενο": 7766,
      "εξυπηρετησης": 7767,
      "χρησιμοποιησε": 7768,
      "πλεονασμα": 7769,
      "σκακι": 7770,
      "δεδομενη": 7771,
      "εμπνευση": 7772,
      "διαδρομης": 7773,
      "φημη": 7774,
      "πακετα": 7775,
      "υποθεσης": 7776,
      "ιω": 7777,
      "ολου": 7778,
      "οριων": 7779,
      "καιρου": 7780,
      "##πεν": 7781,
      "κλειδ": 7782,
      "λογοτεχνιας": 7783,
      "ζωνες": 7784,
      "προηγηθει": 7785,
      "bmw": 7786,
      "κοντινα": 7787,
      "press": 7788,
      "##ειν": 7789,
      "βλεπε": 7790,
      "ορου": 7791,
      "##λογοι": 7792,
      "εντυπωσιακα": 7793,
      "τουριστες": 7794,
      "διατηρουν": 7795,
      "υπνου": 7796,
      "οαεδ": 7797,
      "ενδιαφερονται": 7798,
      "δικηγορος": 7799,
      "τριτου": 7800,
      "προορισμος": 7801,
      "βαζουν": 7802,
      "θεατρικο": 7803,
      "θεραπειες": 7804,
      "μακιγιαζ": 7805,
      "ιωαννου": 7806,
      "τουρκων": 7807,
      "οδηγησης": 7808,
      "κειμενων": 7809,
      "εντοπισμο": 7810,
      "εγκληματα": 7811,
      "##θυμη": 7812,
      "απλων": 7813,
      "beach": 7814,
      "##γραφει": 7815,
      "ολης": 7816,
      "##ερες": 7817,
      "##min": 7818,
      "##δακι": 7819,
      "εξειδικευση": 7820,
      "σοφιας": 7821,
      "full": 7822,
      "διεξηχθη": 7823,
      "σωσει": 7824,
      "##τριες": 7825,
      "νικητης": 7826,
      "προγραμματισμου": 7827,
      "ανεβει": 7828,
      "##ουλες": 7829,
      "αρχειου": 7830,
      "##gar": 7831,
      "αθλητων": 7832,
      "θεοτοκου": 7833,
      "προμηθευ": 7834,
      "κυκλους": 7835,
      "##λην": 7836,
      "αχα": 7837,
      "παρασκευα": 7838,
      "ναυτιλιας": 7839,
      "μακρα": 7840,
      "##θεντα": 7841,
      "ve": 7842,
      "αναμνησεις": 7843,
      "ζαν": 7844,
      "##ile": 7845,
      "αναγκαιοτητα": 7846,
      "##τρων": 7847,
      "##σμ": 7848,
      "σχολιασμος": 7849,
      "θετικες": 7850,
      "αρχηγο": 7851,
      "χαμενο": 7852,
      "πουτιν": 7853,
      "αναφερω": 7854,
      "κατασκευασμενο": 7855,
      "cre": 7856,
      "παικτων": 7857,
      "αυστρια": 7858,
      "μαιος": 7859,
      "##βαθμι": 7860,
      "φωτεινη": 7861,
      "χαρτια": 7862,
      "προφανες": 7863,
      "##ουσες": 7864,
      "μοντελου": 7865,
      "διοικητης": 7866,
      "σερι": 7867,
      "##τιδα": 7868,
      "cl": 7869,
      "τιτλου": 7870,
      "ενοικια": 7871,
      "φαλ": 7872,
      "μηχανικος": 7873,
      "κερ": 7874,
      "ναζι": 7875,
      "σκαφη": 7876,
      "ενωσεις": 7877,
      "##dia": 7878,
      "υγιη": 7879,
      "140": 7880,
      "κεφαλια": 7881,
      "αρχηγου": 7882,
      "900": 7883,
      "μονιμα": 7884,
      "πορ": 7885,
      "θελησε": 7886,
      "ψηφιση": 7887,
      "επαναφορα": 7888,
      "φορολογικη": 7889,
      "μεταφερουν": 7890,
      "γερμανος": 7891,
      "##κτικη": 7892,
      "γνω": 7893,
      "ζωδιο": 7894,
      "##cc": 7895,
      "προσπαθουμε": 7896,
      "σαλατα": 7897,
      "μωρα": 7898,
      "φτασουν": 7899,
      "##af": 7900,
      "ser": 7901,
      "συναψη": 7902,
      "##ωδες": 7903,
      "μεριμνα": 7904,
      "τσεπη": 7905,
      "##52": 7906,
      "φοντο": 7907,
      "σαρκα": 7908,
      "μιχαλη": 7909,
      "##chi": 7910,
      "κωδικας": 7911,
      "ζυγο": 7912,
      "μπορεσουν": 7913,
      "παραγοντων": 7914,
      "υψηλοτερη": 7915,
      "μεταρρυθμιση": 7916,
      "σαφη": 7917,
      "φοβου": 7918,
      "##ika": 7919,
      "αυτοκρατορια": 7920,
      "smart": 7921,
      "πενηντα": 7922,
      "ευχες": 7923,
      "##ada": 7924,
      "μεσογειου": 7925,
      "πραγματικες": 7926,
      "διανομης": 7927,
      "ιδιαιτερως": 7928,
      "μεταπτυχιακο": 7929,
      "εμαθε": 7930,
      "##ρυθ": 7931,
      "προνοιας": 7932,
      "λεμονι": 7933,
      "οικισμο": 7934,
      "##δικες": 7935,
      "ορισμος": 7936,
      "διαδικτυακη": 7937,
      "ζητωντας": 7938,
      "εμφανισ": 7939,
      "προσαρμοσ": 7940,
      "αδαμ": 7941,
      "##ιδιο": 7942,
      "##we": 7943,
      "##λακη": 7944,
      "bro": 7945,
      "φταιει": 7946,
      "πραγματικοτητας": 7947,
      "δευτερης": 7948,
      "προκαλωντας": 7949,
      "δημοσιευματα": 7950,
      "διδακτικη": 7951,
      "περιηγησεις": 7952,
      "διευθυνσεις": 7953,
      "κλιμακας": 7954,
      "οφειλων": 7955,
      "##03": 7956,
      "καινοτομιας": 7957,
      "ευχ": 7958,
      "anti": 7959,
      "φτωχεια": 7960,
      "συνεχιστει": 7961,
      "θειο": 7962,
      "ολοκληρωσει": 7963,
      "ρεαλ": 7964,
      "επισημανε": 7965,
      "##θετουμε": 7966,
      "επαγγελματικου": 7967,
      "εξοικονομηση": 7968,
      "δοκιμαστε": 7969,
      "παυ": 7970,
      "υπογραφει": 7971,
      "βορρα": 7972,
      "επισκεπτης": 7973,
      "μπορ": 7974,
      "back": 7975,
      "##μελ": 7976,
      "πλησιαζει": 7977,
      "εξαρτηση": 7978,
      "φαρμακειο": 7979,
      "δινονται": 7980,
      "125": 7981,
      "συλλογικη": 7982,
      "ιατρο": 7983,
      "bio": 7984,
      "εισοδηματα": 7985,
      "τυποι": 7986,
      "war": 7987,
      "1821": 7988,
      "παραγωγων": 7989,
      "ενοτητες": 7990,
      "ισογειο": 7991,
      "υγιεινη": 7992,
      "μαστου": 7993,
      "αστερα": 7994,
      "πρωταγωνιστες": 7995,
      "##τελει": 7996,
      "km": 7997,
      "συντελεστη": 7998,
      "αδελφη": 7999,
      "θεραπευτικη": 8000,
      "προεδρικο": 8001,
      "are": 8002,
      "τζου": 8003,
      "εργαλειων": 8004,
      "νυχια": 8005,
      "ινες": 8006,
      "γερμανικα": 8007,
      "αστερων": 8008,
      "##υση": 8009,
      "κεφαλη": 8010,
      "##λατ": 8011,
      "διεξαγεται": 8012,
      "μοναδικος": 8013,
      "πλοιων": 8014,
      "ψηφους": 8015,
      "αθω": 8016,
      "νομιμη": 8017,
      "##εργατες": 8018,
      "ουγγαρια": 8019,
      "τεχνογνωσια": 8020,
      "brand": 8021,
      "##ζης": 8022,
      "κορεα": 8023,
      "##περι": 8024,
      "λαβ": 8025,
      "μικροι": 8026,
      "##λους": 8027,
      "συγκροτηματος": 8028,
      "διορθωση": 8029,
      "ιησους": 8030,
      "##ωτες": 8031,
      "διευθυντρια": 8032,
      "επισκεπτη": 8033,
      "##ning": 8034,
      "συνταξης": 8035,
      "τετ": 8036,
      "προσπαθησει": 8037,
      "αποχρωση": 8038,
      "ποι": 8039,
      "festival": 8040,
      "παντες": 8041,
      "center": 8042,
      "πηγαμε": 8043,
      "κυριαρχη": 8044,
      "φιλμ": 8045,
      "κακου": 8046,
      "μεθοδοι": 8047,
      "ανεργων": 8048,
      "τουρκικης": 8049,
      "ξεκαθαρο": 8050,
      "παλατι": 8051,
      "##υρ": 8052,
      "καθοριζει": 8053,
      "φυλακ": 8054,
      "καρε": 8055,
      "πτηση": 8056,
      "εναλλακτικες": 8057,
      "##ρτ": 8058,
      "ανωτερη": 8059,
      "εργατικου": 8060,
      "tu": 8061,
      "διακοσμη": 8062,
      "hu": 8063,
      "αγροτικο": 8064,
      "επαγγελματικων": 8065,
      "##κελ": 8066,
      "πιανο": 8067,
      "αγροτικη": 8068,
      "περηφαν": 8069,
      "νικησε": 8070,
      "μητρωο": 8071,
      "##pro": 8072,
      "##θεα": 8073,
      "##τσια": 8074,
      "##fo": 8075,
      "φτωχο": 8076,
      "απογραφη": 8077,
      "ταχ": 8078,
      "##γυ": 8079,
      "ελλας": 8080,
      "φαινοταν": 8081,
      "κλασικη": 8082,
      "ποιητη": 8083,
      "επιμελητηριου": 8084,
      "εκτοτε": 8085,
      "##ction": 8086,
      "ολον": 8087,
      "##ρινα": 8088,
      "ετ": 8089,
      "χιτλερ": 8090,
      "##ore": 8091,
      "ταυτα": 8092,
      "##iki": 8093,
      "φαρ": 8094,
      "θεοδωρος": 8095,
      "νεολαιας": 8096,
      "##λπ": 8097,
      "υπεγραψε": 8098,
      "πτυχες": 8099,
      "ελιτ": 8100,
      "προστιμο": 8101,
      "εννοω": 8102,
      "##εφ": 8103,
      "φτασαμε": 8104,
      "εξελιξης": 8105,
      "σημειωσεις": 8106,
      "οργανωμενη": 8107,
      "γλυκια": 8108,
      "λοιπες": 8109,
      "χαρακτηριστικη": 8110,
      "αναφερουμε": 8111,
      "ναος": 8112,
      "αργο": 8113,
      "##τητων": 8114,
      "##rd": 8115,
      "ακινητου": 8116,
      "μυρι": 8117,
      "αληθειας": 8118,
      "δουλε": 8119,
      "επανε": 8120,
      "##ρεσ": 8121,
      "μπυρα": 8122,
      "##πολης": 8123,
      "ξημερωματα": 8124,
      "##the": 8125,
      "##κυρ": 8126,
      "παρακολουθουν": 8127,
      "προχωρα": 8128,
      "αρση": 8129,
      "χρυσου": 8130,
      "ουρανου": 8131,
      "ταινιων": 8132,
      "επιδιωκει": 8133,
      "δημιουργικο": 8134,
      "δεχθηκε": 8135,
      "γεια": 8136,
      "συνεργαζεται": 8137,
      "im": 8138,
      "χιλια": 8139,
      "αγνοια": 8140,
      "δουλευουν": 8141,
      "παραμεινουν": 8142,
      "υδατων": 8143,
      "ζωγραφικης": 8144,
      "αυτια": 8145,
      "βαγγελης": 8146,
      "εισαγωγης": 8147,
      "τρομο": 8148,
      "φρου": 8149,
      "εγραφε": 8150,
      "συνεχεις": 8151,
      "##πολεως": 8152,
      "θεωρηθει": 8153,
      "##μνη": 8154,
      "εφοδια": 8155,
      "λουκα": 8156,
      "αλλως": 8157,
      "βαθμος": 8158,
      "συμβουλοι": 8159,
      "δεχτηκε": 8160,
      "συνεδριασης": 8161,
      "##nt": 8162,
      "προσδιορισ": 8163,
      "der": 8164,
      "##ria": 8165,
      "διδυμο": 8166,
      "μπηκαν": 8167,
      "οδηγησουν": 8168,
      "συνελευσης": 8169,
      "περιβαλλοντικης": 8170,
      "πηγων": 8171,
      "ακουω": 8172,
      "μεταγραφη": 8173,
      "υπογραψει": 8174,
      "ακτινοβολια": 8175,
      "μαρι": 8176,
      "μαγνητ": 8177,
      "θησαυρο": 8178,
      "##φυσι": 8179,
      "επικυρω": 8180,
      "##φαρ": 8181,
      "αμερικανικης": 8182,
      "φασ": 8183,
      "green": 8184,
      "φον": 8185,
      "επιτροπες": 8186,
      "οποιασδηποτε": 8187,
      "πεισει": 8188,
      "απαλλαγη": 8189,
      "εφορια": 8190,
      "ιωαννα": 8191,
      "ελπιδες": 8192,
      "εγγραφες": 8193,
      "αναστ": 8194,
      "βαφ": 8195,
      "κοτ": 8196,
      "νουμερο": 8197,
      "συγκεκριμενης": 8198,
      "καμμενος": 8199,
      "μαρτιν": 8200,
      "αναβαθμισ": 8201,
      "##βολη": 8202,
      "τροχο": 8203,
      "over": 8204,
      "χαρακτηρισ": 8205,
      "ακμη": 8206,
      "παντο": 8207,
      "χειροτερη": 8208,
      "διαγραμμα": 8209,
      "καμμια": 8210,
      "pri": 8211,
      "μπορεσε": 8212,
      "σασ": 8213,
      "ευαισθητοποιηση": 8214,
      "αποχρωσεις": 8215,
      "##ρακη": 8216,
      "##tz": 8217,
      "ιδιων": 8218,
      "αρχειων": 8219,
      "εξοδος": 8220,
      "##μμα": 8221,
      "κυματα": 8222,
      "αποδιδει": 8223,
      "παρακολουθησει": 8224,
      "##νικων": 8225,
      "πιστοποιησης": 8226,
      "εντασης": 8227,
      "πληρωσουν": 8228,
      "van": 8229,
      "μανου": 8230,
      "eurogroup": 8231,
      "δουκα": 8232,
      "350": 8233,
      "ιδιωτικων": 8234,
      "καραμανλη": 8235,
      "γενιες": 8236,
      "δεχθει": 8237,
      "συστηματικα": 8238,
      "##ιζω": 8239,
      "κατευθυν": 8240,
      "μηχανισμου": 8241,
      "λεωφορο": 8242,
      "πιασει": 8243,
      "##aki": 8244,
      "##λιγ": 8245,
      "##λογικων": 8246,
      "βιβλιοθηκης": 8247,
      "κτηριο": 8248,
      "κωνσταντινο": 8249,
      "##κεν": 8250,
      "##μαλ": 8251,
      "##νικ": 8252,
      "αυξημενο": 8253,
      "##τομη": 8254,
      "αποφυγετε": 8255,
      "συμβολα": 8256,
      "επαγγελματικες": 8257,
      "συνηθεια": 8258,
      "συνοδος": 8259,
      "##ere": 8260,
      "##fe": 8261,
      "##ελλα": 8262,
      "συχνο": 8263,
      "σκηνοθετης": 8264,
      "##my": 8265,
      "αστικης": 8266,
      "περιορισμενο": 8267,
      "θαρρος": 8268,
      "βλαβες": 8269,
      "ελευθερων": 8270,
      "μοι": 8271,
      "ec": 8272,
      "οφειλες": 8273,
      "ριξει": 8274,
      "##αζ": 8275,
      "##εας": 8276,
      "σαμου": 8277,
      "ηχος": 8278,
      "##θεσι": 8279,
      "δοκιμες": 8280,
      "εντουτοις": 8281,
      "κυβερνητικη": 8282,
      "##ace": 8283,
      "##τερος": 8284,
      "##κρατη": 8285,
      "##τιμ": 8286,
      "κτη": 8287,
      "##ric": 8288,
      "μελλοντικη": 8289,
      "μαρξ": 8290,
      "ινα": 8291,
      "επιστημες": 8292,
      "περιγραφεται": 8293,
      "διαρκη": 8294,
      "κιλο": 8295,
      "ποντο": 8296,
      "μαρτυρια": 8297,
      "λογικα": 8298,
      "καλησπερα": 8299,
      "χαρακτηρας": 8300,
      "εφαρμοστει": 8301,
      "##lar": 8302,
      "τρελο": 8303,
      "##αρο": 8304,
      "διατηρησει": 8305,
      "συμπαρασταση": 8306,
      "πιπερι": 8307,
      "απλες": 8308,
      "στιγμα": 8309,
      "##σχολ": 8310,
      "χθεσινη": 8311,
      "απολαυστε": 8312,
      "ρυθμισης": 8313,
      "αφιερωμενο": 8314,
      "##ποιημενη": 8315,
      "μονοπατια": 8316,
      "δεχτει": 8317,
      "καταλυμα": 8318,
      "κρατουν": 8319,
      "σμυρνης": 8320,
      "ξεκινησουν": 8321,
      "τελευταιους": 8322,
      "κυριας": 8323,
      "προωθει": 8324,
      "διακηρυξη": 8325,
      "εμπορικα": 8326,
      "##ath": 8327,
      "παρεις": 8328,
      "##ωρα": 8329,
      "σχεδιαση": 8330,
      "προετοιμασιας": 8331,
      "##ητες": 8332,
      "μακροχρονια": 8333,
      "##γμενο": 8334,
      "κινητοποιησεις": 8335,
      "ληφθει": 8336,
      "γιορ": 8337,
      "##ae": 8338,
      "θεωριες": 8339,
      "αρνηθηκε": 8340,
      "στεγη": 8341,
      "ντοναλντ": 8342,
      "##λετ": 8343,
      "γυρισει": 8344,
      "##στρι": 8345,
      "αγγλιας": 8346,
      "αγιοι": 8347,
      "ηγετη": 8348,
      "απομακρυν": 8349,
      "μητροπολιτη": 8350,
      "##ποιησε": 8351,
      "dia": 8352,
      "φωτισ": 8353,
      "μισος": 8354,
      "αμεσης": 8355,
      "διαφανεια": 8356,
      "##μουν": 8357,
      "##γκερ": 8358,
      "οικειο": 8359,
      "κρατησης": 8360,
      "πιν": 8361,
      "##καστρο": 8362,
      "υμνο": 8363,
      "δεσμευσεις": 8364,
      "βεροιας": 8365,
      "βγουν": 8366,
      "διευρυνση": 8367,
      "απιστευτα": 8368,
      "##ραστηριοποιειται": 8369,
      "##λακια": 8370,
      "αρχαιων": 8371,
      "καρπους": 8372,
      "χιλιομετρων": 8373,
      "συλλογικο": 8374,
      "##ras": 8375,
      "##ζια": 8376,
      "##ετες": 8377,
      "1988": 8378,
      "##υσα": 8379,
      "νικ": 8380,
      "ki": 8381,
      "αρωματα": 8382,
      "ισχυρες": 8383,
      "καταγγελιες": 8384,
      "##σελ": 8385,
      "house": 8386,
      "##τηρη": 8387,
      "ζυμη": 8388,
      "κουκου": 8389,
      "αντικειμενου": 8390,
      "δημοτικα": 8391,
      "##νεις": 8392,
      "φορτιο": 8393,
      "νοοτροπια": 8394,
      "εννοειται": 8395,
      "προκαλεσουν": 8396,
      "δυναμει": 8397,
      "ησυχο": 8398,
      "##τηριων": 8399,
      "ηλικιες": 8400,
      "πλαγια": 8401,
      "καταστροφης": 8402,
      "ξενες": 8403,
      "πληρωμα": 8404,
      "##ρακης": 8405,
      "προειδοποιηση": 8406,
      "προστατευεται": 8407,
      "##gu": 8408,
      "εκτιμα": 8409,
      "ασημι": 8410,
      "πλουτου": 8411,
      "##ern": 8412,
      "κρατικου": 8413,
      "πεναλτι": 8414,
      "ψυχολογικη": 8415,
      "τραγουδιου": 8416,
      "##στια": 8417,
      "καταπληκτικο": 8418,
      "τροχια": 8419,
      "πυργου": 8420,
      "εργαστηριου": 8421,
      "μαλα": 8422,
      "δισκος": 8423,
      "δημιουργικοτητα": 8424,
      "περιστερι": 8425,
      "πληροφορηση": 8426,
      "αυστηρο": 8427,
      "##μικο": 8428,
      "κοινες": 8429,
      "γραφουν": 8430,
      "φιλοξενιας": 8431,
      "εκδοθηκε": 8432,
      "port": 8433,
      "##lu": 8434,
      "ποστ": 8435,
      "ενοικιαση": 8436,
      "##ik": 8437,
      "ακριβο": 8438,
      "λιαν": 8439,
      "##μαρα": 8440,
      "πεφτουν": 8441,
      "##αιρ": 8442,
      "τηλεορασης": 8443,
      "διεκδικηση": 8444,
      "καταρτι": 8445,
      "ανακοινωθηκε": 8446,
      "##ida": 8447,
      "χαιρομαι": 8448,
      "ομωνυμο": 8449,
      "αναγνωσ": 8450,
      "απαξ": 8451,
      "ουκρανια": 8452,
      "περιηγηση": 8453,
      "##ιτες": 8454,
      "συγχρονου": 8455,
      "θεσμων": 8456,
      "εργατικη": 8457,
      "πειραμα": 8458,
      "ιδιωτικα": 8459,
      "light": 8460,
      "##ρρε": 8461,
      "##oy": 8462,
      "γραφικο": 8463,
      "##αθ": 8464,
      "θεατες": 8465,
      "##περα": 8466,
      "επηρεασει": 8467,
      "μπαταριες": 8468,
      "ανεβηκε": 8469,
      "συναδελφο": 8470,
      "γραμματειας": 8471,
      "αγροτων": 8472,
      "ασιας": 8473,
      "προσπαθειας": 8474,
      "φαναρι": 8475,
      "βενιζελου": 8476,
      "βασιλικο": 8477,
      "δωματιου": 8478,
      "χτες": 8479,
      "##τιζεται": 8480,
      "εβλεπε": 8481,
      "διαστασεων": 8482,
      "νικολ": 8483,
      "##ευση": 8484,
      "##fi": 8485,
      "χρηματος": 8486,
      "θυρα": 8487,
      "επαφης": 8488,
      "##φρον": 8489,
      "καλλιτεχνικη": 8490,
      "##und": 8491,
      "βελγιο": 8492,
      "##ιστικο": 8493,
      "smartphone": 8494,
      "πηγαινουν": 8495,
      "διαπιστωσει": 8496,
      "test": 8497,
      "διαταξης": 8498,
      "βουρ": 8499,
      "εισφορων": 8500,
      "οικογενειων": 8501,
      "##av": 8502,
      "εγκληματικη": 8503,
      "δακρυ": 8504,
      "χρησιμοποιηθηκε": 8505,
      "εικονων": 8506,
      "επιτυχιας": 8507,
      "##ιωση": 8508,
      "μεγαλωνει": 8509,
      "παιχνιδιων": 8510,
      "##ορα": 8511,
      "κρυβει": 8512,
      "##στατη": 8513,
      "τουρκικα": 8514,
      "er": 8515,
      "##μους": 8516,
      "tr": 8517,
      "πληθωρα": 8518,
      "πυρα": 8519,
      "##ιστης": 8520,
      "προθεσμιας": 8521,
      "τσιμπ": 8522,
      "##πας": 8523,
      "ηξερα": 8524,
      "νοτιου": 8525,
      "ποιους": 8526,
      "ιωαννινα": 8527,
      "ιδιαιτερες": 8528,
      "##men": 8529,
      "υπολοιπων": 8530,
      "σκοτεινο": 8531,
      "##γιε": 8532,
      "χορος": 8533,
      "αρνειται": 8534,
      "##ουζ": 8535,
      "##τρικη": 8536,
      "ανθρωπινες": 8537,
      "καταλαβουν": 8538,
      "αλεξανδρα": 8539,
      "χαλκιδικης": 8540,
      "ξανθη": 8541,
      "ληξης": 8542,
      "δευτερας": 8543,
      "##δοτη": 8544,
      "##sta": 8545,
      "βοηθησουμε": 8546,
      "κατευθυνσεις": 8547,
      "##υργια": 8548,
      "πραγματοποι": 8549,
      "θανασης": 8550,
      "σκαλα": 8551,
      "ωμο": 8552,
      "προηγουμενης": 8553,
      "αναγεννηση": 8554,
      "νικητες": 8555,
      "##ub": 8556,
      "χαρακτηρισμο": 8557,
      "συμβουλη": 8558,
      "φιλτρα": 8559,
      "γατα": 8560,
      "##ug": 8561,
      "##ena": 8562,
      "ανταγωνισμο": 8563,
      "συναντησε": 8564,
      "##υτο": 8565,
      "##ary": 8566,
      "γευματα": 8567,
      "περιοριζεται": 8568,
      "κουπονι": 8569,
      "##ail": 8570,
      "κινηματογραφο": 8571,
      "ελενα": 8572,
      "##ted": 8573,
      "ανακατευουμε": 8574,
      "εσω": 8575,
      "εξυπηρετικο": 8576,
      "πεδιου": 8577,
      "μεταφερθηκε": 8578,
      "##lis": 8579,
      "εκπαιδευτικης": 8580,
      "μαθουμε": 8581,
      "βιογραφικο": 8582,
      "χρε": 8583,
      "##φανη": 8584,
      "1987": 8585,
      "αγωνιστηκε": 8586,
      "γνησιο": 8587,
      "κιλκις": 8588,
      "φιλοσοφιας": 8589,
      "νομιμα": 8590,
      "καθισμα": 8591,
      "επιλογων": 8592,
      "παρουσιας": 8593,
      "manager": 8594,
      "bra": 8595,
      "καταστροφες": 8596,
      "διαβα": 8597,
      "##κορ": 8598,
      "##τυπω": 8599,
      "##μικη": 8600,
      "προστατη": 8601,
      "σταθμων": 8602,
      "##υλη": 8603,
      "ποντι": 8604,
      "##ham": 8605,
      "ανακουφιση": 8606,
      "##μελη": 8607,
      "ενημερω": 8608,
      "αρχιτεκτονικης": 8609,
      "##lon": 8610,
      "καμερες": 8611,
      "##σταλ": 8612,
      "##φιλ": 8613,
      "af": 8614,
      "##αντα": 8615,
      "##ιδο": 8616,
      "περιορισμους": 8617,
      "αθ": 8618,
      "ζωγραφικη": 8619,
      "χαρτης": 8620,
      "νομικου": 8621,
      "παραλαβης": 8622,
      "αποδειξεις": 8623,
      "##ora": 8624,
      "αφησαν": 8625,
      "στεγνω": 8626,
      "οικοπεδο": 8627,
      "βομβα": 8628,
      "ασχημα": 8629,
      "ομοιω": 8630,
      "ελαφρως": 8631,
      "σωματειων": 8632,
      "χρ": 8633,
      "εξαιρετικες": 8634,
      "##ρρη": 8635,
      "κρυ": 8636,
      "αναπληρωτη": 8637,
      "metal": 8638,
      "μπορεσουμε": 8639,
      "ζητουμενο": 8640,
      "αποφυγει": 8641,
      "εγγυ": 8642,
      "ke": 8643,
      "ποιοτικη": 8644,
      "##στικης": 8645,
      "παγου": 8646,
      "ορχηστρα": 8647,
      "αυξησει": 8648,
      "αιωνια": 8649,
      "διευκολυνση": 8650,
      "μπαμπα": 8651,
      "εκπροσωπου": 8652,
      "ηπια": 8653,
      "ποταμο": 8654,
      "##λτ": 8655,
      "παρουσιαστει": 8656,
      "λεγ": 8657,
      "ταξιδιωτικ": 8658,
      "αστα": 8659,
      "##ολη": 8660,
      "επιθεσης": 8661,
      "συμβουλων": 8662,
      "συναυλιες": 8663,
      "παχυσαρκια": 8664,
      "val": 8665,
      "μεθοδολογια": 8666,
      "##of": 8667,
      "##σμενες": 8668,
      "γνωσεων": 8669,
      "il": 8670,
      "##βολι": 8671,
      "##ματο": 8672,
      "##tal": 8673,
      "αιγιδα": 8674,
      "τεταρτης": 8675,
      "πρακτικης": 8676,
      "φυσιολογικη": 8677,
      "καταχωρηση": 8678,
      "οπτικο": 8679,
      "##ποιημενο": 8680,
      "συστη": 8681,
      "sports": 8682,
      "χημικων": 8683,
      "##τικοι": 8684,
      "τυπικα": 8685,
      "δημοσιευθηκε": 8686,
      "γερμανικης": 8687,
      "μουσικων": 8688,
      "μπλογκ": 8689,
      "μαρκετ": 8690,
      "##δικων": 8691,
      "προηγουμενων": 8692,
      "δημοφιλη": 8693,
      "συνδεει": 8694,
      "hol": 8695,
      "αισθητικης": 8696,
      "καναπε": 8697,
      "ανακαμψη": 8698,
      "ξυλου": 8699,
      "##μηνη": 8700,
      "διεξαγωγης": 8701,
      "μπουκ": 8702,
      "τεχνες": 8703,
      "παροντες": 8704,
      "βασιζονται": 8705,
      "συντελεστες": 8706,
      "ακουσε": 8707,
      "νεολαια": 8708,
      "ενασχοληση": 8709,
      "γηα": 8710,
      "περιφημο": 8711,
      "σκ": 8712,
      "ανεπιφυλακτα": 8713,
      "γυρισε": 8714,
      "φωτ": 8715,
      "ψυχικης": 8716,
      "##500": 8717,
      "απογοητευση": 8718,
      "αρκετους": 8719,
      "ευρωπαιοι": 8720,
      "set": 8721,
      "μειωσεις": 8722,
      "##στηρι": 8723,
      "συνη": 8724,
      "##ama": 8725,
      "σχεδιασμενο": 8726,
      "##bs": 8727,
      "##ναμε": 8728,
      "διασκεψη": 8729,
      "##ding": 8730,
      "##βολα": 8731,
      "εξη": 8732,
      "##συνη": 8733,
      "γιατρους": 8734,
      "##ινας": 8735,
      "δισκου": 8736,
      "##λντ": 8737,
      "ρολου": 8738,
      "res": 8739,
      "προσβολη": 8740,
      "##ειτε": 8741,
      "ανηκε": 8742,
      "##ise": 8743,
      "λαμπρο": 8744,
      "γιαννα": 8745,
      "##all": 8746,
      "προθεσεις": 8747,
      "μαρκετινγκ": 8748,
      "τεν": 8749,
      "βαλκανια": 8750,
      "σαντορινη": 8751,
      "ιστορικης": 8752,
      "##ake": 8753,
      "##δρο": 8754,
      "##ψουμε": 8755,
      "ιδρυσε": 8756,
      "##φωνο": 8757,
      "φροντιζει": 8758,
      "μακεδονικο": 8759,
      "φερνουν": 8760,
      "καταλαβε": 8761,
      "εφαρμοζει": 8762,
      "απασχολουν": 8763,
      "##cl": 8764,
      "τοποθετειται": 8765,
      "##λαγ": 8766,
      "περιμενα": 8767,
      "εποπτεια": 8768,
      "##λεκ": 8769,
      "γουστα": 8770,
      "λεπτων": 8771,
      "##nc": 8772,
      "σκοπιων": 8773,
      "αφη": 8774,
      "προηγουμενου": 8775,
      "προελευση": 8776,
      "1920": 8777,
      "κυριαρχει": 8778,
      "καζινο": 8779,
      "τελε": 8780,
      "κομισιον": 8781,
      "##ουρ": 8782,
      "απευθυνονται": 8783,
      "υπουργικη": 8784,
      "αφροδιτη": 8785,
      "φωτισμου": 8786,
      "επισημαινεται": 8787,
      "εντασσεται": 8788,
      "pat": 8789,
      "περιβαλλοντικη": 8790,
      "##ριδης": 8791,
      "##ρχο": 8792,
      "πληροφοριας": 8793,
      "##φει": 8794,
      "βαμβακι": 8795,
      "νομικης": 8796,
      "αγροτικων": 8797,
      "χαρτο": 8798,
      "1944": 8799,
      "ευχαριστησω": 8800,
      "cap": 8801,
      "βιωσιμη": 8802,
      "εμπορικων": 8803,
      "1981": 8804,
      "ορθοδοξου": 8805,
      "καλλιτεχνη": 8806,
      "##ola": 8807,
      "πουλια": 8808,
      "##ever": 8809,
      "πραξικοπημα": 8810,
      "ελκ": 8811,
      "##ls": 8812,
      "ενοχο": 8813,
      "απθ": 8814,
      "##λαχ": 8815,
      "κερι": 8816,
      "φωτεινο": 8817,
      "συγγραφη": 8818,
      "επιτυγχανεται": 8819,
      "τεχνο": 8820,
      "κλιση": 8821,
      "βασιλευ": 8822,
      "εξτρα": 8823,
      "στομαχι": 8824,
      "σταθηκε": 8825,
      "pop": 8826,
      "##νικου": 8827,
      "##ατο": 8828,
      "σημανση": 8829,
      "συμφωνο": 8830,
      "##ερη": 8831,
      "επεμβασεις": 8832,
      "μαγειρευ": 8833,
      "πλημμυρ": 8834,
      "περιπατο": 8835,
      "εκπροσωπο": 8836,
      "αστυνομικη": 8837,
      "υψηλων": 8838,
      "##ρεια": 8839,
      "δολαριων": 8840,
      "καταλαβαινω": 8841,
      "κοσμηματα": 8842,
      "ψυχες": 8843,
      "μετρησεις": 8844,
      "μετατραπει": 8845,
      "ανταγωνιστικο": 8846,
      "περιπτωσεων": 8847,
      "σχεδιαστει": 8848,
[...]
